#version: 0.2
Ġ Ġ
i n
ĠĠ ĠĠ
in t
r e
Ġ <
Ġ int
T E
Ġ p
Ġ {
) ;
s t
Ġ =
d e
Ġ a
Ġ }
Ġ i
Ġ m
c l
Ġp r
( "
i o
Ġpr int
Ġprint f
Ġ re
u de
Ġ 0
Ġ t
Ġm a
u r
ur n
h e
t urn
in cl
incl ude
Ġ #
Ġ f
Ġre turn
st d
T A
M P
A T
MP T
S TA
TE MPT
AT TEMPT
STA TE
Ġma in
Ġ b
( )
" ,
Ġ c
std io
Ġ /
Ġ s
Ġ (
(" %
Ġ/ /
e r
ĠĠĠĠ ĠĠĠĠ
a r
U S
o r
a l
B U
Ġ BU
Ġ n
in g
o n
ĠBU G
l e
Ġt he
s e
Ġ x
i s
e s
Ġf or
l o
n t
o t
" );
o u
r r
Ġ 1
N F
C O
US E
NF USE
CO NFUSE
F O
C US
FO CUS
E R
O A
O V
L OA
ER LOA
OV ERLOA
OVERLOA D
u m
m p
io n
z e
u n
n d
Ġ w
Ġ *
i ze
i t
Ġ st
c k
s ing
re e
m e
Ġf ree
Ġa rr
g e
a n
a t
Ġc h
Ġ d
+ +
) );
N O
o f
he ck
a re
l y
Ġi f
b le
Ġ %
u f
Ġ v
Ġch ar
c t
Ġ l
Ġs um
Ġ e
Ġ C
Ġa nd
Ġ in
N T
H I
HI NT
] ;
Ġb e
i r
ize of
Ġ T
o p
Ġt o
C heck
s izeof
lo c
i le
o re
++ )
o mp
r a
d d
[ ]
} ;
is sing
Ġl in
u l
Ġm issing
f ore
Ġbe fore
Ġ 2
cl o
ar r
c h
Ġ y
Ġc al
Ġ "
ou ble
Ġ u
Ġ de
i b
Ġc on
m al
mal loc
st r
ct ion
Ġi s
ra c
Ġb rac
t s
i v
Ġ '
Ġ clo
o int
Ġv al
me nt
e m
p e
Ġ on
o w
Ġ 3
l ib
Ġp oint
* )
std lib
h is
Ġb uf
Ġ h
a in
D O
O DO
ĠT ODO
Ġ +
Ġs w
Ġd ouble
Ġ 5
Ġpoint er
a d
i d
an ge
i c
Ġf un
Ġfun ction
Ġu se
Ġon ly
Ġc a
e n
a me
Ġval u
Ġ= =
Ġd iv
Ġma x
r un
Ġf ir
Ġfir st
he n
h ange
a y
Ġw h
Ġcal c
z er
zer o
Ġi t
Ġ N
Ġt his
i a
Ġ &
. .
Ġh ow
1 0
s i
v g
is ion
] );
g ot
Ġ 4
ir m
Ġca se
ude nt
Ġfor got
Ġst udent
er r
u t
f ul
ar t
f irm
g ain
Ġ run
Ġ err
Ġp art
Ġa gain
Ġre ad
Ġc are
ĠC omp
ĠC hange
ĠT hen
Ġlin e
Ġcon firm
ful ly
Ġerr or
Ġcare fully
ĠComp ile
it i
al ize
iti alize
c an
can f
" ;
f t
Ġc omp
str ing
Ġ un
A dd
a p
b uf
Ġbrac e
Ġclo sing
Ġb y
' ,
', '
Ġ lo
Ġdiv ision
o l
U se
Ġ j
Ġ< =
Ġwh ile
Ġs canf
Ġlin es
Ġ 9
it h
l se
Ġst r
Ġvalu e
ar ia
aria ble
c d
ge ts
Ġ 7
Ġde cl
Ġa vg
ot al
Ġ g
L L
de f
U LL
ĠN ULL
Ġcomp are
Ġe lse
in itialize
initialize d
g er
Ġ 6
o c
Ġlo op
Ġw ith
E nt
Ent er
Ġa dd
e d
Ġv ariable
ft er
Ġn o
Ġa re
at e
it ch
Ġsw itch
Ġn ot
se s
r on
ol on
Ġt otal
Ġs em
ic olon
Ġsem icolon
on e
op en
re s
Ġw ron
Ġwron g
x t
e re
g n
Ġuse d
Ġun initialized
- -
Ġ 8
Ġ1 2
a k
i re
Ġ ");
Ġs o
A rr
S um
Ġsum Arr
Ġ+ =
ĠsumArr ay
Ġa fter
o d
s on
y pe
Ġt mp
Ġg cd
P er
Ġ Per
ĠPer son
t w
Ġbrac es
) (
) /
] ));
f a
Ġsw ap
++ ;
le ment
l loc
Ġ >
are d
Ġdecl ared
Ġst ate
Ġstate ment
Ġclo se
ĠBU F
de x
Ġy ou
Y ou
Ġcompare s
' .
Ġin dex
m at
c mp
Ġfor mat
o v
he r
n c
a x
o k
Ġe nd
) .
t h
Ġa s
n s
t e
Ġ' \
n ot
q u
Ġw he
ul t
t es
lo w
in is
Ġby tes
or y
i l
Ġm em
Ġmem ory
at ion
Ġadd res
e ger
Ġint eger
Ġ zero
Ġa t
Ġc heck
i m
y es
Ġ or
Ġa n
si de
Ġf gets
es s
Ġpr oc
Ġproc ess
k e
a s
op er
Ġ1 0
! =
Ġ !=
a ge
si gn
Ġas sign
Ġde fa
Ġdefa ult
d ouble
re ak
Ġb reak
p ut
def in
Ġ open
it ion
t her
Ġwhe ther
f gets
tw o
2 0
T he
Ġ' }
Ġn e
i f
y p
a v
Ġ3 2
.. .
od y
x p
Ġb ody
Ġd ire
-- )
Ġdire ction
Ġbe low
Ġma lloc
le d
c e
w l
Ġ )
Ġcal led
s ame
Ġaddres ses
("% .
re f
um b
Ġe lement
Ġde ref
ere nc
Ġderef erenc
Ġdereferenc ing
d ition
Ġcon dition
Ġn umb
Ġnumb er
nt ere
Ġe ntere
Ġentere d
s h
Ġm u
ar ts
Ġst arts
Ġu sing
Ġst ore
Ġval id
c c
3 2
n y
p d
u s
O K
" )
Ġ std
str cmp
Ġstd in
o m
Ġin side
ou t
p s
Ġstr ing
Ġvalu es
l d
q j
' };
Ġ{ '
< =
[] ,
u ct
Ġassign ment
l l
le n
e c
de d
k n
t r
o id
Ġb lo
Ġblo ck
o g
) -
= (
str len
-- ;
Ġstr uct
n ame
Ġ{ "
Ġa ge
Ġt ype
Ġn ame
Ġtype def
d one
Ġint en
Ġb ut
Ġinten ded
Ġpr ot
ot ype
Ġprot otype
Ġstatement s
( &
Ġv oid
t xt
ar ger
me th
Ġl arger
Ġ2 0
Ġso meth
Ġsometh ing
inis he
v w
r s
Ġcal l
i p
F I
z j
in es
L E
) )
C an
L ines
M ax
Ġ FI
in put
Ġf ile
Ġf clo
Ġf open
Ġ( !
BU F
Ġ12 8
defin e
Can not
ĠFI LE
Ġfclo se
g h
z k
q b
u b
z h
Ġ1 6
q w
Ġ'} '.
Ġ1 5
j b
Ġre qu
Ġrequ ire
z y
z v
l a
Ġ3 0
i w
i j
e t
x k
q y
z b
o h
x j
i y
u j
Ġ2 5
i k
o b
o y
x f
q d
q h
z w
x b
x r
q k
z f
u k
x w
m m
g j
T his
g b
x v
g k
q n
q v
a j
g f
g p
z m
o j
Ġ4 0
al id
g v
u v
a h
z d
q s
z n
ov e
Ġi mp
Ġimp lement
z p
x m
z t
g d
x h
r b
u y
q f
q l
u w
Ġ5 0
i h
x c
g y
o s
at es
Ġs ame
q p
z s
n j
Ġp are
nt he
Ġpare nthe
a b
Ġa lloc
Ġ9 9
ar ation
Ġdecl aration
u p
q e
f j
q c
u h
a st
Ġcall ing
er m
f h
w j
l h
g t
n v
m h
f v
res s
Ġarr ay
Ġstr cmp
m v
x e
Ġt erm
Ġterm in
ot h
m b
pe ct
Ġstore s
w y
x s
Ġwh at
x d
o e
Ġmu st
c b
g s
x y
Ġ oper
u d
Ġprint ing
z l
m d
f b
q r
q t
c s
c p
f w
c v
k j
f y
x l
m j
; '
m ain
re turn
g r
k b
c r
z r
a w
u e
at or
x n
g l
r ou
a e
g w
m w
k d
Ġ include
p v
Ġpr oper
Ġend s
i e
k h
c j
n h
c y
k y
m t
p w
r d
ic e
m y
p b
s y
ok s
f d
v b
l j
v h
l b
v d
t j
r h
c n
p y
a f
le te
a m
F inis
f inishe
Ġun finishe
Ġlo oks
Finis h
Ġunfinishe d
c w
n b
r y
g m
q m
s s
ed s
t b
v y
P r
l w
p j
p h
c f
w w
k r
Ġcon te
s b
n on
p r
o de
v j
Ġh as
Ġne eds
l t
i u
k m
Ġst op
k f
Ġe x
e y
Ġc ode
q z
p t
c m
o z
Ġca u
k w
Ġvariable s
s d
r j
g x
Ġc an
Ġrequire d
v v
n e
w b
k t
l r
g u
f s
k s
h y
x x
l m
h b
n n
h w
l s
y y
i g
j j
x z
t d
a a
q g
l v
f p
f r
k v
n w
o o
ot her
u q
x q
c z
b b
t t
k p
m r
e h
l p
o a
i x
j y
g g
u u
j d
z a
y d
h d
s r
i q
e w
n r
u c
f k
n p
Ġcase s
es n
b d
w d
an g
ar d
z c
j t
o ok
io r
x g
l f
n k
m f
h av
a ch
z i
t y
a q
f in
o x
Ġp la
Ġpla ce
on d
nd s
h ou
t l
nt s
b y
c if
j h
a g
p p
a il
L ook
' t
o esn
p ing
w ard
Ġm ove
er ation
Ġch ange
Ġch ang
Ġd oesn
Ġe ach
Ġto ward
Ġu pd
Ġit eration
Ġtermin ates
Ġstop ping
Ġchang es
Ġupd ate
r v
s is
t ch
) ).
Ġc ou
Ġs izeof
at ing
Ġmu ch
Ġalloc ating
pect s
Ġex pects
Ġcou nt
g q
r w
a u
b h
x u
w n
a z
lo se
ke e
R em
d h
Rem ove
F ree
w ice
Ġt im
Ġt wice
Ġma ny
Ġs ec
Ġs et
Ġbe hav
Ġun defin
Ġcau ses
Free ing
Ġtim es
Ġsec ond
Ġbehav ior
Ġundefin ed
ns u
P oint
v ariable
Ġin itialize
Ġpoint s
il l
Ġde fin
The re
d ic
Ġma tch
Ġopen ing
( '
) '.
C lose
Ġma y
Ġe xp
Ġ' ('
Ġ' )'.
Ġwith out
Ġparenthe ses
Ġparenthe sis
ress ion
Ġmatch ing
Ġexp ression
= =
Ġpointer s
Ġstring s
Ġconte nts
f er
ar b
ar y
; .
B oth
a nds
c ates
t otal
Ġt run
Ġt yp
Ġoper ands
Ġtrun cates
Ġtyp es
s j
Ġi ts
g z
i er
y h
D iv
E nsu
l low
Ġa llow
is or
id ing
Ġdiv isor
Ġdiv iding
Div ision
Ensu re
Ġallow ed
oc us
a de
f m
k k
s n
b j
ra sh
Ġ of
C hange
F ocus
s canf
in e
Ġint o
); .
Ġin put
Ġaddres s
Ġf inishe
() .
Ġs hou
Ġfinishe s
Ġshou ld
A fter
v p
v alid
Ġthe n
Ġin valid
Pr int
C on
w e
Ġf ail
Ġc rash
Ġw ill
pe ns
Ġh ap
side r
Ġalloc ation
Con sider
Ġfail s
Ġhap pens
V alid
Ġl ast
Ġin dic
Ġindic es
f e
l n
o q
r im
U sing
Ġp ast
Ġa cc
Ġb ou
es ses
nd ary
Ġon e
Ġ<= ).
Ġacc esses
Ġbou ndary
t p
y e
w h
Ġs pe
Ġspe cif
Ġf lo
Ġspecif ier
Ġflo at
o i
ra p
v f
ow s
s p
z u
g c
m l
b r
t ain
ul l
" .
T rim
U n
Ġ Enter
Ġ kee
Ġp ress
Ġw hen
Ġbuf fer
Ġne wl
Ġkee ps
Ġnewl ine
I n
m k
Ġcon tain
Ġg arb
Un initialized
In itialize
Ġgarb age
in k
y v
v e
pe d
d b
i ke
x i
d j
z z
T h
t v
j r
u i
Ġ he
Ġ' #
ade rs
Ġhe aders
a c
q q
Ġw rap
> .
h h
S tr
b out
Ġ kn
Ġa bout
er al
Ġn ull
ing s
it eral
Ġl iteral
Ġwhe re
Ġtermin ator
Th ink
Str ings
Ġkn ows
I ns
v n
ar is
Ġcomp aris
Ġassign s
Ġoper ator
Ins pect
Ġcomparis on
c om
b t
p n
u x
w r
z g
w s
h t
l k
W ith
re ct
Ġb oth
Ġc or
Ġg rou
Ġne xt
With out
rect ly
Ġcor rectly
Ġgrou ped
s v
b e
m n
d p
z x
Ġ'} '
Ġclose d
Ġa ll
Ġl ike
Ġbe com
Ġproper ly
Ġbecom es
c omp
Ġin comp
Ġincomp lete
f n
u a
v r
m s
d y
b s
f c
j w
t k
v s
b f
z o
k q
h s
g o
j s
l u
y s
z q
b w
r m
t n
l c
q x
y j
x a
d r
d s
l g
f g
y r
w k
p k
v q
i i
r t
c a
f z
t f
h m
i z
y b
y w
m a
c x
j k
b v
u g
j e
m g
f f
n f
1 2
n l
1 5
m x
v k
b k
s l
1 6
f q
c q
v l
p f
v t
w f
h l
j l
n u
p c
2 5
a ult
Ġcomp lete
def ault
e k
3 0
f u
h v
c u
w g
5 0
w t
b m
p m
f x
j u
r f
j p
l z
x o
q a
b l
h p
r l
d n
w m
j c
b p
j v
b x
h n
h k
j n
k z
r c
w u
d m
p q
d f
y t
a i
l x
e b
s w
9 9
4 0
m u
Ġ1 9
r p
d k
q i
v o
d w
d c
g a
d t
h j
f i
k c
k i
g i
f l
n q
h u
j g
v a
m q
t u
Ġ1 8
u o
d z
e p
m c
j z
k g
p l
m z
s g
. ,
; ).
o ice
y k
b n
r k
s z
u z
s u
c g
c o
d v
j f
a o
b g
f o
h g
n z
y m
y z
t i
c i
k l
y n
e f
w q
b a
w v
p a
r n
v c
p u
t m
h q
s f
y a
k a
l i
y f
n x
e l
w x
k u
q o
e e
s m
> '
h at
Ġ ...
Ġ} '.
() {
s k
l q
s x
t z
w p
t c
e j
j m
i de
y g
v er
j q
m o
v z
Ġ1 1
b z
t g
m i
ra m
d g
p z
b q
y o
b u
n m
r o
r x
h r
r q
e u
k o
d l
r g
s c
j i
v x
y q
p g
Ġt hat
Ġpr og
Ġe ver
ov ide
Ġcall s
Ġimplement ed
Pr ovide
Ġdefin ition
Ġprog ram
Ġever y
v m
pe t
h f
j a
e i
n ip
p x
v u
k x
n o
r u
Ġ1 3
e z
t q
r z
d a
w a
y u
p o
r i
Ġ2 8
e cl
e v
Ġ2 3
Ġ2 4
y l
y c
Ġ1 7
b c
n a
n g
j x
p i
t x
e g
s o
D ecl
e lse
h z
ur rou
Ġs nip
Ġs urrou
nd ing
Ġconte xt
Ġdefin ed
Decl are
Ġsnip pet
Ġsurrou nding
h i
Ġ1 4
d q
h c
j o
d u
y i
w i
Ġ2 1
e a
h a
Ġ2 2
Ġ2 6
v i
d x
n i
t a
w o
h x
w z
b i
s a
al l
e x
e o
Ġ2 7
w c
Ġ2 9
S ub
ch oice
Ġ3 7
M issing
Ġf all
ut ing
th rou
ec uting
Ġex ecuting
Ġcau se
throu gh
s q
b o
y x
Ġ3 5
t o
Ġ3 3
d o
h o
Ġ3 9
Ġ3 8
Ġ3 1
e q
Ġ3 4
Ġ3 6
d i
Ġ7 9
Ġ7 3
Ġ8 3
Ġ7 0
Ġ6 6
Ġ9 5
Ġ6 3
Ġ5 5
Ġ9 6
Ġ7 8
Ġ6 0
Ġ8 2
Ġ8 9
Ġ5 2
Ġ7 1
Ġ6 1
Ġ5 9
Ġ7 4
Ġ6 5
x it
Ġ5 7
Ġ4 7
Ġ7 6
Ġ6 7
Ġ9 0
Ġ7 7
Ġ6 2
Ġ5 1
Ġ4 2
Ġ4 5
Ġ6 8
Ġ4 6
Ġ8 1
Ġ8 7
Ġ5 4
Ġ8 0
Ġ8 6
Ġ9 2
Ġ9 8
Ġ5 3
Ġ5 6
Ġ9 4
Ġ9 7
Ġ4 1
Ġ7 2
Ġ5 8
Ġ8 4
Ġ4 8
Ġ9 1
Ġ6 9
Ġ9 3
B ye
E xit
I nv
Ġch oice
Ġ7 5
Inv alid
Ġ8 5
Ġ4 4
Ġ4 9
Ġ6 4
Ġ4 3
Ġ8 8
xe b
qj f
r ll
qv q
j rb
st h
se c
ck o
at d
j zb
y iy
se m
ij w
v qj
w tr
ul j
q ay
f ap
f fh
l zm
of d
gv r
c ct
gy h
oe k
ue k
k vw
zy c
f xj
qd s
t pj
s xb
w de
id f
w fj
y gd
av o
oh n
gt c
a gy
l qu
u pd
y ok
oy b
f ot
qj l
zv i
ij a
gb a
e xs
x ik
ar p
ar q
zk r
x ax
fj t
d iw
k ut
l nh
x ge
y lb
ob m
qe u
gx i
i en
k xj
n zy
yp q
oh k
zp f
s pw
io e
zn b
zp r
os f
zr z
k ck
er d
ad i
ok h
xw f
zp v
l xv
o ql
r uh
s nb
v xk
v mb
v rd
uf w
uf y
i us
k zk
v zh
is v
as u
qs u
c nh
h cb
j ct
k ub
n is
v uw
re a
se u
ub j
cj l
d gv
o ol
t zj
od x
oy q
qn w
os x
vd b
d zj
ia x
xr u
c gb
p zb
iy c
zm o
ky w
my d
lw z
d uj
f xy
h ut
j af
k vy
w zv
in l
ts o
ap n
gn o
yp r
jb e
qy j
xf l
xf z
gk t
xn l
cn o
g de
j pb
n lo
q qb
u op
y ze
gn k
od t
ke z
om n
uh m
fw c
d tj
i uw
m op
n nj
t xc
w wy
w pj
y gw
ot u
ze e
ic c
ia m
if c
xp r
rs q
ik h
zw e
zw f
gf l
ql b
os k
up y
qz q
d yy
g gb
o or
p nj
q qp
t fd
nt o
it d
ir n
as w
xp x
gk d
ah v
xy o
h op
m ts
n uj
p ob
qh z
gf f
mj x
d xl
h wj
j qk
j nj
k lj
l on
l zy
r zy
w sy
y gp
ct x
av i
gk i
zn w
lh t
gt a
fy g
qm x
cf k
b mv
b sy
f cw
m xj
p fd
r fv
y rb
z cp
me a
ay f
od p
wl r
og v
ik w
xr o
qs r
zs q
xe p
cr z
ie i
iu g
a ak
b zs
b wj
b xs
d lj
o zy
p tb
r fh
t gj
u ly
y op
ch m
ic z
od g
if p
zy x
ij m
xk q
qt c
xq o
e lt
h ne
p ak
v xh
w og
y ks
oc z
qv j
uh q
lh l
gt p
b yy
d ry
f um
f pv
l id
n wb
o ob
r xn
s mp
s aj
v un
v rb
v nj
v sd
y zy
y uk
y eh
ur a
ar a
nt l
nt q
ul b
if x
qj z
vw s
ij g
xf m
zm d
zd i
mh k
cm s
uq x
zi i
a ih
c uj
l pt
z ih
at s
ke f
wl v
zj x
qb t
gf o
uh l
xd l
zr x
ue w
c ak
d jj
e qj
g xp
h rh
i xy
j fh
k pb
n cd
n xt
p ab
t rr
t uk
u aj
v oy
w gy
re x
he y
ar o
or d
se w
mp f
ch f
iv x
qu b
qu w
gj u
gp n
zd f
qs n
gy z
lt a
a ot
b ur
b ny
f ib
g me
h xk
i qe
k al
k qd
l ik
l xf
l sy
n ut
n os
n nh
o qk
o xn
p id
q of
s it
t ny
u ik
st l
rr k
nd m
it x
ia s
il d
cc w
pd b
qw k
qy c
oh u
iy v
xr b
qs c
uy t
gt n
xe i
d fj
l xb
m kf
p cb
s ck
x mm
x gj
y lw
dd y
pe z
ia f
ap l
ax i
uk j
oe e
oe w
qr q
qt q
za i
b gn
b gv
b lh
d nc
d py
f em
f nb
h hw
i ul
j uv
j hy
k wj
k lp
m sh
m fp
n pv
q qf
r st
r gr
r tb
t gb
u zf
cl h
al n
se n
lo m
un g
ir l
xr h
qv h
xc b
zs j
fj s
qt y
oo o
uu a
a ah
b tw
b sb
b jj
c ir
g ur
h il
h aw
i xb
j om
n he
p ld
p fh
s xf
s oj
u zn
w th
y jd
st t
le a
mp r
un m
of u
ct q
iv r
id z
ap q
ax j
xp n
qj g
jb d
iw q
xr z
zf u
gj m
gl p
nn o
f ck
l ur
r kh
r cf
z ke
z qy
gn h
im c
tr u
qh m
zw q
uk d
qf o
up w
xd w
af o
a xt
d ul
d xp
e ge
f ov
g ld
h gk
j pe
j gr
k ts
k gv
m vw
q me
q vg
s vd
v tj
w re
w vb
x gf
io a
is q
um l
me v
at q
pe j
id j
vw t
xb w
uk y
zd t
zt u
zt y
xc a
ab e
oe x
md u
cv b
cv e
gu z
a gb
a wy
b wy
b cy
c nj
e ah
e jy
f kd
f lm
g ae
h zv
i es
j ly
k cl
m zj
m ss
n ie
p th
p gk
p zd
p ud
q as
r wj
u ge
v ge
v ts
v ip
w ts
w ol
y gy
st f
lo i
nt z
uf g
iv p
if d
yp p
av f
pd m
us y
iw d
ij f
zb k
iy s
xf o
xr m
zf g
gy o
gw e
vh t
gm r
ne j
xx g
c qv
j ft
l ck
m ih
p qp
r ck
t uv
t fh
v ur
w wl
y mb
in n
it a
ul n
oc o
kn m
qn o
gv n
up u
qr g
za o
b of
b lb
f ob
f uy
f uw
g mm
i xh
j uh
j lb
k kh
n kh
p lw
r pj
r pp
s pv
t nj
v vb
w qh
w cb
w cs
x qh
y ob
z qu
z zj
st q
rr a
ze t
ap x
ax s
il k
if w
wl a
gj d
gj j
uv u
zt m
zr q
cj p
gx g
ks x
4 7
5 5
e qb
k is
k ct
k ft
k ny
m ak
m ij
r gb
s xp
s zl
u ed
u ip
v le
w mh
x ow
x sh
y se
y rs
z xh
z cr
um v
ib g
ad g
si q
av t
qj j
qw e
jb q
zy b
zv p
qy q
zd o
zt j
ql f
ql h
qc o
xd z
xl p
pr p
iu i
rv n
d cs
e il
e zj
f nd
f zw
j gp
j kb
l ut
m zw
r zh
u oy
w ab
x ny
x zk
z is
z ot
re o
me j
ow j
as k
iy m
ob n
zs y
ky h
lm z
kv o
a gf
a fy
a aw
b ot
b xt
b cc
b qd
b gs
b kb
d uv
e vj
e hb
g qw
h sh
h xv
l ly
m ot
m ge
n ge
n gb
o ot
o av
o zl
p qc
p fw
p fy
s xh
s km
t xb
v qd
v lj
w um
y aj
y xy
de e
ar g
ra x
dd i
ul f
ib c
id p
si m
od j
fa i
ov q
im q
yp o
zj s
xr i
xw e
xc m
up f
oe a
fw u
ue o
gl j
kd k
kr c
kr z
iu u
fm u
4 4
b rr
b ic
b fv
c qd
d ub
d gk
d jd
e ot
e qk
f nc
f qw
f mj
f gm
f nw
g oy
g zt
j cl
j zk
j kt
k ob
l nj
l kd
m sy
n iw
n mv
n lt
p rs
p nv
q gb
r at
s gh
t vd
t vj
t kp
u qv
v nc
v zw
w ub
w kh
w tj
x or
x ap
x im
y ut
y iw
y kj
z ol
z tw
in z
he v
lo q
nt i
nd x
ch i
ch k
ch z
ad r
ic v
ay e
ia a
ia g
si z
if h
ll m
ip c
zb p
iy g
uj n
ob p
xw i
gf m
zm c
zm r
oj m
ql u
gt t
xs u
aw g
af n
gx a
ig c
lp n
qq x
b cb
c ip
d mm
g xk
g xf
r ip
r tj
s ly
t at
t nn
u am
v vj
y av
z vg
al c
es o
me g
ia p
tw w
fa w
cb y
zr i
gu q
ag o
b om
b qv
b aj
b rd
d my
e qt
e jj
e jh
e gq
f fv
f fy
h af
j ak
j vd
k oc
n mt
p ke
q tw
q ok
s fb
t gy
t mh
v xy
v ey
w rd
x qk
y te
y fv
y wy
y qt
y tb
z gv
al u
un j
an v
op p
ib l
ad y
xt e
gn l
il j
im y
qj o
zf y
gp l
zm v
zn v
zt q
qp l
mb a
qr l
ue h
vh f
oz c
uq o
lp l
ix g
gz o
3 8
a en
a ay
b ct
b tr
b cs
b fs
c um
c fh
d xt
d ak
d mv
d tp
e at
e ut
e th
e zh
f gj
f kh
h cs
i uh
i xl
j rw
k of
k pd
k fd
k lb
k vd
m ct
m yp
m xb
m ah
m cp
n fw
o ab
q zy
r re
r iy
r ik
t if
v ue
w ih
x xy
y ny
y et
y ss
z wl
on r
nt c
id u
ft v
ke k
om i
vw j
qb p
zh n
zv y
qy z
oh g
iy o
xw d
xw r
xw t
gj x
xv i
zm t
gv t
gd m
gd r
qf y
ql j
xc g
xc o
xc y
fv x
wy t
xs r
kb d
gw v
mw m
mw o
nh w
ky z
lt c
ix i
zc q
lf c
ag c
xi i
b ou
b vj
c my
e is
f en
h pw
j tb
k qv
l nt
m ce
n ww
q zm
r nw
u uj
v im
y og
st p
it j
sh n
us p
og u
qw u
qy g
xr j
xv j
qv i
xm r
xe y
ky u
kq o
b uj
c ob
d zh
d xk
d xv
d gr
e ct
e xf
e zs
g qn
g cs
h ny
h ps
h md
h pv
j cp
j wb
k oj
l vg
n qh
n kd
o se
o ch
o zr
p ly
p pb
s qv
u jb
v ny
v ps
v ph
w zb
x ip
y ak
y ld
z le
z dd
re g
st j
de o
al p
ze q
un u
ck f
dd z
ts k
iv h
ow h
id n
ay w
ut w
od i
qu v
sh s
us n
og o
vw u
gh r
zk d
qb l
uj m
uv t
ah b
zp i
up v
lh j
mh l
zl u
ae v
my q
km g
qz c
vv c
lr q
xz z
aa a
fe f
4 2
b nc
b zf
b gp
d ir
d ne
e ow
e wy
e kj
f ns
f gf
f fb
g uf
g rs
g zd
g zr
h oh
i zk
j de
j ib
j im
j qf
j mh
k rb
m cl
m wj
m kw
n em
n ey
n fr
q or
r ce
r qb
r gd
r xy
s io
s mv
s oz
t fa
t tj
v ij
v lw
w cl
w ns
w qk
x zj
x qw
y ur
y ir
y xt
y cj
y vb
z ge
z oh
z qd
z uh
z cm
in y
al b
ze a
ze c
an w
of v
ct f
ul p
ch j
ch o
ts v
em y
ic y
vg f
ol f
oc w
od f
if s
yp b
gh b
qb o
qw r
zb i
zf q
gp t
zn p
uy d
uy k
qf p
ql c
xc p
qp c
fj q
qc m
qr i
fw g
ae u
gw m
cy s
rh n
cn l
py w
fs m
xz q
fp m
uc o
fk o
az x
ux o
zq o
a an
b sd
e ew
f ny
f pb
h vb
h tj
k zn
n gn
o em
o ax
p op
p ad
q os
r ts
r qy
r gg
v nv
w sb
x he
ar l
le g
nt n
nt x
ib b
vg u
od c
ok w
qj h
ij x
xm q
xh x
xe z
kj w
ae k
qm a
qm l
kt v
vs g
a zh
a cv
b il
b ce
b ne
c mm
d is
d mp
d of
d tb
e gv
e fd
f at
f ft
f ry
g at
g mh
j es
k it
l tw
m rb
n ll
p os
r ns
r xj
r zs
r fw
r ne
s ov
s ah
t cc
t fj
v uy
v pv
v ss
w xj
x oc
x gn
x xe
y fp
y jy
z cn
de r
ou z
um a
mp d
un v
op m
dd l
pe f
ic g
ft i
cd z
od l
wl l
qb a
qw i
jb i
oh q
uj w
ob d
qh b
uk u
gv c
zd k
qs y
gd y
lh w
xe u
ud y
cv c
xl b
gr i
gl f
ae z
ie f
af e
qm c
lt n
qz x
oo i
fk u
zc u
6 4
7 8
9 7
a zp
b nj
b cw
c io
c xk
c qn
d oy
d vd
d hy
e gh
e zw
e fy
e vp
f ew
h st
h ow
h fv
h nb
i he
i gy
j uf
j ns
j ps
j cs
j rh
j kr
j ey
k or
k qt
k vb
l uw
l cb
m gn
n lj
n lb
o ib
p iv
p xf
p lj
q mp
q ut
q ol
q oy
q xb
q rb
r xb
r mj
s st
s xd
s fd
s ph
t op
t cd
t oj
u ax
u zh
v pb
w he
w rj
y ed
y ec
y qb
y tj
z oy
z gb
re w
de c
cl g
nt p
an x
ct g
ra h
ul d
ib n
ad h
ad v
en w
cc b
cc s
zj y
zk rr
qw m
la z
iw e
zb g
zb z
gp u
xm b
ql k
uw j
qe e
qe k
qc q
qc r
wj y
qr h
cr o
aw x
ue i
xn p
gw x
rh h
cn m
iu o
iu q
fs c
ls z
aa i
xq a
zz o
kq i
a mw
b ck
c mv
c md
d lh
e lo
e pv
f mm
g ze
h kn
j fb
j ph
j vj
k de
k uw
k ph
n fh
q xw
q ab
r nj
r py
r kf
s ra
t kd
x ol
y vg
y th
y td
an b
sh x
vw v
oh f
iy w
qk d
uk f
xd t
md n
md o
cr c
a cp
a ie
b or
b ly
b yd
c ov
d ts
d sh
e tr
e bw
h vy
i qd
j it
j sy
j gta
k se
k ps
k zy
k mb
k vh
m ry
n ld
o ow
p nc
p zs
p qe
p lb
q io
s xk
s mt
s np
u si
v qh
v ah
w ce
x cl
x ck
in o
re b
de y
he s
he x
ul k
ol r
oc f
th j
te t
cc n
qb sl
zv e
zv z
iy l
qh y
xr k
qk y
gf w
gp r
zp t
zp y
ih f
qc x
oe f
zl v
zr d
cj h
cj w
mt q
cf g
pr c
ig g
ig q
mr o
ix o
fc o
7 5
7 6
9 3
a cl
a av
b ze
b en
b im
b mm
b nv
b fd
b rj
b tp
c fd
d og
d fd
d tv
d vt
f is
f ps
f zh
f mb
f mw
g vg
g ap
g ps
g gd
g ie
h de
h pe
h gn
h zy
h lb
h kr
i qh
i zd
i gr
j pv
j lm
k gy
k gr
k cr
k vj
l er
l av
l iw
l qe
l sd
l cz
m kj
o ed
q ge
q ik
r ic
r ft
r uk
r fy
r pw
r vy
s zj
s wd
t ck
t ns
t xf
t mv
t fs
u le
u ij
u gd
u cv
v tw
v og
v pt
v sr
w ed
w kp
x xb
y oy
y gb
y cp
y bh
z aw
cl t
ar u
se g
is w
um d
um p
nd g
nd t
at c
dd j
ul u
ap u
ol a
cd n
nc a
qu d
qu j
if q
yp c
xp t
ce a
cc x
us c
kn v
zv d
zb o
ik y
zw b
xr q
zf s
xw p
mm x
gk l
gp w
zm u
oj k
oj v
gv l
uv b
xm k
xm o
ih g
ih z
xc n
up a
mb l
xs f
gs q
qt l
fy x
xl u
gr c
aw h
xn a
gl v
ae x
gm c
gm g
sb n
oz o
rj j
gu o
lv l
uu x
xu z
zu i
dj xq
ac g
b rb
d qw
e zk
f ct
g cb
h of
h py
j qw
k cy
k kw
r uf
r ny
r nh
t um
w pd
x mp
z xw
or f
se p
il g
il m
as o
wl p
ik t
gj s
xh z
up b
ud x
xz g
lv k
xg o
az u
lc o
a as
a fb
c er
d zk
e ou
e as
f qu
f pj
g ll
g gy
h qd
h kj
i qn
j pp
k rs
l le
l xt
l qd
n ov
n fj
n nv
o op
o oh
p ap
p ub
p uj
q ld
q oh
r ct
r xt
r zw
r lw
r wd
t em
t up
t vy
u ts
u xy
v rr
v vh
w nv
w fy
w pv
w ry
w tp
x nv
x ud
y rv
z zr
cl i
mp s
nd j
nd q
an q
ir t
iv m
xt q
gn r
ok c
og p
gh c
et i
zb w
zw o
xr n
gj e
gj g
gk r
gk s
qn q
xh a
ql n
xc u
xc v
xc w
ab b
up r
up t
gt l
xe j
xs l
gs z
ud w
gr q
xn z
pj w
kr w
pr m
cz i
mr u
az z
lk z
1 3
1 4
2 2
5 1
6 2
7 0
8 7
a un
a of
a fh
b on
b hb
b tt
c ou
c nv
d on
d wj
d lb
d vr
e ld
e uj
e xm
e ph
f he
f es
f os
g wy
h un
h xb
h kd
h vh
h tb
i ir
i zh
j wy
j kh
j ws
k en
k ll
l qj
l gj
l fj
l tb
m me
m nn
n of
n mj
o ze
p xb
p cs
p nb
p ry
q fa
r io
r ar
r ge
r tr
r vj
s ad
s gy
s jj
t gh
u dd
u qy
u zw
v ir
v xv
w ow
w ps
w zd
w pw
w nb
x st
x ke
y ow
y kb
z id
in d
in v
st o
es k
es y
ou v
ck b
at n
uf n
uf v
ch q
ad q
ay i
ft q
od k
od w
fa b
fa z
ax c
qj b
kn x
zy v
oh v
iy k
ob j
qs q
zn e
zn m
zp c
qf z
up g
qc p
xd i
xd u
oe l
zl f
qr c
qr d
fy k
xn q
ae g
my y
cf l
km u
vv o
lr z
nn q
ls c
xz a
aa c
uq a
eh h
uc q
zu x
ml x
mn a
ug a
hv on
yiy o
vqj p
klp a
b ij
b wh
c iv
e qd
e lm
f ls
g gh
h ob
h mm
i xj
j iw
k gl
p uh
q qd
r xh
r wb
s ab
t os
y qy
y ww
y nw
ar c
ze z
ay r
ap f
us s
vw d
zj f
qb q
jb v
qk l
qv o
os b
qc z
qt k
ie w
am s
iu z
ig o
ui i
a op
a ec
a ub
b xj
b jd
b we
d kn
d tr
d qb
d ah
d gs
d cw
d pj
d nw
e xp
g zy
h ok
h if
h mb
h ud
h ph
h kp
h jk
j rj
j vv
j yy
k ah
k zp
l ts
l im
l kf
m on
m zt
n nc
n aj
n gd
p me
p pv
q ah
r qv
s kj
t ot
t fb
t nb
t nw
u on
u if
u us
v io
v cb
v fp
w or
w lo
w os
w xs
w hb
x ce
x xeb
y mj
y ey
z ib
z iw
z uj
io i
lo z
um n
ge j
at m
dd v
ch g
ch u
ic s
en l
ol v
cd k
ed z
ok l
qu x
if z
yp g
wl g
wl x
us z
om k
ip a
jb a
zv r
zv s
xb g
gk h
oj c
gv i
qs w
xm z
zt x
qf x
qp a
lh c
gt d
gt q
cp c
gr w
ie a
am l
gm x
qm f
cf n
kr x
cm x
vv n
cz o
tl g
xu i
az g
lk c
1 7
2 1
2 9
3 3
3 4
4 1
4 6
4 8
4 9
5 2
5 7
8 3
9 0
9 1
a oh
b th
b ub
b uh
b mb
b lj
c aj
c rb
c wy
c fb
d ly
d kh
d wd
d ln
e ce
e ec
e gb
e fb
e jr
f im
f qh
f mh
f kb
f kw
g cl
g tw
g md
g xl
h ke
h sy
h rw
i et
j ll
j xj
j zm
j fv
j nb
j oo
k ow
l gb
l cv
m ay
m kn
m kh
m kv
n qw
n fv
o aw
p st
p xp
p xj
p xw
p aj
p uy
p kf
p qz
q al
q qv
q mj
q gl
q gtc
r fa
r gj
r uw
r vb
r km
s me
s ft
s cs
t tb
u ps
v he
v op
v ke
v qf
v vy
v kt
v kp
w qv
w cw
w tv
x ou
x av
x xp
x zh
x gy
y ot
y me
z de
ur w
ar h
al f
al q
lo k
rr d
mp c
ze y
un s
nd w
ck p
me q
ir w
dd r
dd w
ch x
iv n
iv u
em c
em r
pe g
ft t
ap g
gn j
ak p
ak x
wl t
sh c
pd o
qj p
qj s
vw f
qb b
jb iy
zv t
zb q
ik b
aj z
aj au
gf k
gp p
oj s
ah d
zd u
zp n
xc s
up c
qe o
gt z
mh y
fv t
xe q
gs j
gs o
gs w
zl n
qt i
xl m
ie p
cj x
pw wo
gm f
gm z
cm r
gx u
fs x
lv n
cz x
uu i
aq i
kk c
mk la
ua o
cx o
sz oa
wq et
kut a
spw t
myp i
e bh
g rb
k ed
l vj
l ks
m xv
n rd
p rb
r wy
r cr
s qe
s cn
u zt
v si
v om
v rw
x ut
x gb
re l
ar k
an e
ly a
ra f
dd g
iv l
ay l
ke g
rs l
zb c
xv c
xc j
qc j
xd n
ud k
md r
rd an
fr q
lg i
a ax
a om
a zw
a uv
b tj
b pj
d cj
e ay
f km
g ad
h or
i me
j le
j xk
j mw
k th
k fj
k fv
k cp
k mt
l xk
l xh
l xy
o xqo
p ow
p mt
q at
q te
r an
r qk
r mv
r cv
r fd
r cw
s or
s cr
s wb
s mr
t mp
t ov
t fy
t pt
u un
w my
w rh
w vn
x em
y cl
y at
y zj
y uv
y nj
y cn
y hb
z uy
re m
io z
ar i
ck e
ow w
ad f
ad n
ia b
oc x
ov t
qu c
qu e
im f
av u
pd k
jb w
ob g
xr l
zf b
gd o
rb ff
xc q
zs a
xd m
oe u
qt b
gr k
ue z
ae w
ky c
am f
cf x
pr x
oz u
qg i
uu g
zc g
mf u
wr q
dr iv
2 3
2 8
4 5
5 4
5 8
6 6
6 7
7 7
7 9
8 9
a ct
a zy
a apq
b nt
b cd
b ps
b fy
b mt
b kf
b sp
c ge
c uf
c ra
c em
c id
c im
c xw
c qr
d av
d rs
d xf
d gy
d cb
d kd
d cn
d sb
d rj
d yd
d rw
e nt
e ub
e pb
e pr
e be
e je
f ke
g gw
g ypr
h um
h gd
h lt
h sd
h kt
h hy
i zv
j ed
j uy
j lw
j ls
j ew
k ot
k xy
k ry
m he
m nc
m sd
m sj
n le
n xj
n qp
n xn
o qn
o aj
p mb
q rr
r tw
r gh
r kb
r zqo
s ak
s ps
s xj
s oy
s xm
s xy
s kh
s vy
s kf
s vp
t qh
t uw
t pv
t pw
u oc
u iy
u gf
u qf
v it
v ic
v th
v iw
v et
v cp
v td
v ew
v mea
w of
w pb
w vh
w rw
x jb
x ij
y ou
y uh
y mw
y np
z un
z ly
z ay
z gh
z oj
z uw
in p
ur v
ar n
se i
ou b
um e
mp n
nd h
ly si
ic d
en y
ia v
ft e
ap h
ap z
cd a
od q
od u
ov l
ns h
ns j
ke j
av oj
wl n
pd l
qj q
og z
qb bz
zh p
qw v
iw y
qy w
zb r
iy e
iy eo
ik q
oy l
xf f
qd g
uk r
gj t
gk p
gk v
gk x
oj t
zn h
xc f
up l
uh d
xs b
xs n
xs w
xd r
oe b
oe g
cb jf
gs yi
ud j
ud q
zl i
zl k
md h
fb q
mj i
ue e
rh r
gm n
qm i
qm z
km q
cm c
rj v
gx o
ig z
hd kt
nr f
nr cv
lf e
lf q
aq a
sn u
fe q
oq i
oq iq
oi z
gc a
db fu
qq q
ma id
trr v
bny u
zol x
b zh
b vb
f la
i cl
i zw
j al
j op
l xe
m nh
p qy
q xv
r qp
t lp
u uv
y uy
y ky
y bb
ur k
on q
id h
ax l
xp l
wl c
cc a
ip n
qb x
zf r
zd j
oz i
kv k
np l
a qj
a cr
a cy
b de
b xw
b pv
b ew
b rv
c ih
d ft
d la
d fh
d zl
e or
e oh
f sh
f nh
g oh
g cw
h xp
h ab
h rd
h ss
h td
i qk
j gh
j la
j uj
j os
j sj
k cs
l uv
l ry
m vg
m nb
n de
n oy
n wy
o is
p or
p zh
p wj
p zyc
q gf
r mh
s uy
s kb
s jd
s lmz
t my
u gb
u xs
v is
v sy
v ty
w om
w qp
w zr
w tb
w eh
x cd
y qp
y gt
y vd
y hy
y by
ur y
ib d
ib u
em v
ic x
ut d
gn u
od v
tw b
nc ew
qu p
il w
as ps
wl h
kn g
tr m
ip x
xk r
oh c
uj fz
xr c
uk t
uk v
uk w
gp h
oj o
qs l
zn q
zp a
zp u
zt n
uy y
ql t
os d
qp m
zs p
qe z
uh u
gt kv
nv f
xs z
xl s
zr y
xn r
ae j
nb ux
qm s
lw iv
sb e
qz z
cm n
lr v
lm s
ig a
zc o
zi z
wn gq
ms g
wfj y
sit f
2 4
3 5
3 6
5 9
6 0
7 1
7 3
7 4
8 8
9 8
a ok
a wj
b st
b ov
b ke
b xp
b mh
b kh
b vv
b wb
b td
b mr
c is
c zw
c xb
d ik
d qh
d zf
d hb
d tt
e en
e qs
f on
f ge
f xk
f xw
f ql
f nj
f cv
g is
g ch
g xt
g os
h re
h zk
h pj
h sr
h mf
h jr
h fn
h js
i ip
i ik
i icz
i zsj
j int
j aj
j kd
j am
j ss
j ks
j hw
j ogv
k ou
k rr
k ab
k fh
l ld
l tr
l qn
l ih
l mh
l pv
l pb
l nn
m xp
m ld
m ll
m lb
m sp
n ks
n fp
o an
p ps
p kd
q ts
q em
q mv
r vg
r vh
r ls
r lc
s ll
s fh
s gw
s cy
s ne
s ulj
t vw
t xl
t mt
t lb
t cw
t kt
t zvi
u al
u aw
u ie
v ut
v av
v ub
v aj
v kr
v mn
v dee
w zj
w zh
w xm
w sd
w hd
x ts
x gh
x wlr
y ul
y tw
y vw
y xm
y nv
y cv
z og
z qc
z okh
cl v
um s
um ah
nd d
nd mh
ge a
of p
of ue
ct lw
op f
ul g
ch y
ib y
ts og
pe h
pe w
ow o
ad z
id k
id r
si p
si x
vg a
cd l
gn c
as j
as n
if i
if o
yp f
tr o
og g
og m
og ga
ip j
jb c
jb o
zv o
la h
iw v
qy o
ob v
xf k
xw g
gk kb
qn m
qn u
qv m
gp g
zm fy
oj f
oj u
gv f
gv j
qs b
zn n
zp m
zp z
zt cb
ql cz
qp lz
qe p
qc n
xd j
gs f
qr k
qt j
qt n
cs o
aw b
aw c
xn u
vd fq
af s
ph b
cf m
kr ne
kf r
ey sc
qz a
cm k
cm z
oz ac
xx a
nn z
nn xh
uq of
lp z
jy so
uu u
za c
iq q
zc i
xg a
gz x
oq o
xi z
zz q
qq a
bt zp
ws ok
fc g
zo ab
lu z
ff u
hv oj
wg ik
jg ig
yk xf
wv xf
jrb m
vqj o
lqu k
dgv z
jaf z
jnj s
vun f
tuk m
xsh w
uam a
mct j
bil a
e se
e ed
f ts
h jd
j ow
j wd
l te
l fs
n ms
q ly
r xk
r pt
s om
v te
v ll
x xk
y jt
z st
z ou
le x
ou y
it m
an i
oh x
zf d
zn zs
qt g
ww w
iu x
nr z
fm c
a ib
a gd
b jb
b py
b lw
c gh
d op
d th
d as
e gw
e pw
e bt
f lj
g op
g gxi
h ur
h ah
h ww
h fs
h hb
j et
j qy
j mj
j vb
j unj
k er
k mp
k op
k rd
k kt
l nc
l th
l zv
l pr
l ijw
m og
m rd
n ed
n pt
o oy
o ih
p io
p lr
p mf
r nt
r zm
r my
s gb
s xv
s mb
s pb
s cw
s rj
s wh
s fn
s gvn
t ld
u cp
v mv
v pj
w cc
w qy
w qs
x et
y ra
y wb
z cb
ur c
er v
or k
is r
lo j
an p
uf b
ch d
ch uo
ad j
id qq
ia k
ol w
xt k
tw wf
nc z
ns m
il s
zj hi
qw a
zb s
xj s
zf jv
gv h
qs g
zt a
zt g
zt yo
qf q
ql s
xc i
qe v
xd c
gs u
zl r
cv t
cr f
kh qu
cn z
af p
qm k
vy d
hy rs
ls f
jj xc
kv z
lp m
np g
zi gy
az q
az dd
oi qs
zg vw
ht nb
zx a
ug i
ff o
fq a
vt gh
vo ah
dw gu
yk rb
nlo f
yrb f
djj e
jvd q
dmp a
gze h
1 9
5 6
6 3
6 5
8 5
9 6
D I
D K
F b
P I
S P
a se
a oy
a mb
a my
a avi
a usc
b ah
b cp
b ww
b hw
b ty
b knm
c un
c ck
c of
c ib
c pe
c qj
d or
d vg
d te
d ip
d nj
d mh
d fw
d kj
d rd
d by
d wk
e ul
e xt
e vw
e qw
e gl
e kh
e vn
e jl
e ek
f re
f le
f iv
f ay
f ld
f qn
f wy
f cj
f fe
f fjt
f xdl
g ge
g xj
g xw
g gv
g mv
h ot
h ax
h th
h uj
h fh
h xy
h kb
h cw
h jj
h sec
h myd
i ps
i gh
i gf
i iax
j ck
j ik
j qn
j tj
j vy
j kw
j kp
k ly
k uf
k ax
k gh
k gk
k uy
k ss
k aye
l cl
l uf
l ft
l ak
l wj
l kb
l mt
l vv
m zy
m uw
m ab
m rj
m ls
m iam
m ilj
m awh
m uqa
n io
n op
n pe
n si
n as
n zk
o it
o cd
o ak
o zh
o xb
o ija
p ny
p qn
p kt
p ks
q qk
q gw
r gn
r qh
r mw
r nk
r odt
s mm
s sy
s am
s kw
s gnh
t on
t are
t ts
t md
u iv
v or
v ow
v vg
v ob
v lh
v ud
v ie
w it
w vg
w wj
w hy
w tt
w ufw
x iw
x oh
x qe
x oz
y he
y ct
y ts
y kh
y vh
y bf
z ir
z qk
er y
ar v
al t
al jt
se f
nt w
ou di
rr m
nd o
nd y
nd za
an u
of h
of lh
uf s
ct u
ir c
dd t
iv t
em fp
ow r
ow t
ay fv
si wn
fa x
ok r
qu a
qu o
tes g
yp x
ce i
ce o
us qk
om q
ld t
kn k
kn w
kn z
og ks
vw q
zk pd
qb u
qb v
iw b
iw cx
xk o
zb v
xj ei
iy a
uj l
xf s
zw g
xr x
zf ys
uk b
xw tq
gj r
qn f
qn nj
qv vw
gp y
zm b
zm h
zd v
xm l
xm n
gd f
uw fq
ih n
zs f
zs r
zs u
qc g
uh h
fh ld
nv s
fv qa
wy hs
xd o
oe ck
xy l
ud g
ud t
qr p
xl g
cr x
zr k
zr o
aw d
ue u
ie kc
ky l
pw tl
ry kq
gm ay
tb vp
cf f
pr uj
pt t
pt xm
lr o
gu c
ks o
ks gf
lm gx
aa z
lv z
kv e
kv p
nw uo
oa g
oa i
za q
hd ui
ew vv
nr n
uc i
uc gz
fk as
np n
bd vj
xg ae
pp cg
wn rs
fm x
fe e
gc x
mk x
hh cz
dr lv
hv in
lz la
bx xm
sw iy
dt ts
ym oc
tm lo
sx od
ez xl
po ip
jrb s
wtr s
ygd q
vvb y
dgk z
ppb m
mcl x
yir a
jkr u
tfs a
dwk c
a zj
b kd
b ss
g iw
g mj
g mt
i zj
k ge
k kd
k cby
n ps
n xb
t pp
w kj
y xb
y bj
ur j
ur l
on v
ch c
oc m
te a
yes k
us l
qj a
gj k
gv q
gs y
gr z
gm u
fr xk
zuw v
b nd
b ec
b iw
b mj
b pw
c in
c os
c xrz
d ny
d aj
d vb
e ck
e fj
e eh
e lk
f ak
f gy
f cy
g an
g th
h ay
h lj
h vd
h vn
h xui
i rra
j md
j fd
j tt
k zm
l gh
l qw
l qh
l qv
l gy
l fw
l gw
l kh
l py
m ft
m ie
m qhz
m qbt
n ny
n kj
n ky
n sem
n qjl
n zkr
n xbw
p ll
p pj
q ll
q ztq
r of
r gy
r ktv
s xt
t ay
t ah
t qp
t kb
u gn
u zp
v ns
v ab
v cw
v wla
v mtq
w ot
w ge
w mm
w td
w gvi
x vw
y jb
y fy
y aw
y ne
y kp
y tk
y tf
z op
z ny
z pd
in r
nt a
nt e
nt v
um i
me pa
an nv
of z
ir vs
dd k
iv c
ad m
ia j
ia ks
ap b
ap r
ol iz
ov s
nc n
ok gd
im z
yp d
av q
av se
sh l
qj r
ec ua
tr ng
zk k
zk u
qw d
ob l
xf h
xb q
uk g
oj r
ah ob
zn u
zp g
zp o
zp p
zt v
gd l
xh d
uy qp
uy li
qp gw
zs z
up m
fj f
fh pw
gt g
gt m
zl tr
md m
fb g
qr j
qt z
cv vr
ae l
mw s
vh yd
af ce
qm g
ph xf
cf q
ww uy
sb zj
pr o
xx u
qg a
qg q
iq i
ew kl
nr v
sj q
yh ol
kk k
ys cm
lg xj
pk z
cq ut
dn cl
jn mt
kc qz
tu ih
mi qm
ro ar
du oi
rpp g
zqu q
agf v
sly d
mce w
yxt f
zcn x
whb e
nde i
mie x
1 1
2 6
2 7
3 9
5 3
7 2
8 6
9 4
D H
F W
J U
J Z
P W
Z z
a ik
a os
a udx
b se
b ed
b qh
b ey
b jh
b iug
b pdl
c sh
c uh
d gb
d uy
d fy
d mt
d sy
d wb
d ye
e ad
e ol
e im
e ue
e lj
e gdr
e ojs
f de
f un
f ly
f oc
f mt
f ey
f wjy
g io
g rr
g ul
g ak
g ov
g lh
g cfk
g xnr
h uf
h ts
h zj
h qy
h gy
h oe
h kh
h my
h jy
h jt
h sp
h fyg
h vsg
h pdo
i ut
i xfz
i qzq
i pdb
j nv
j mv
j vh
j ry
j eh
j emv
k X
k lo
k kb
k qmx
k gpn
k gwm
l qk
l rh
l ne
m er
m es
m ly
m cd
m qd
m gb
m gp
m wy
m cs
m nw
m sr
m irl
m zvy
n xp
n et
n pb
o xt
o zj
p ct
p pe
p if
p lht
p ild
q ou
q it
q ak
q yp
q ip
q zj
q gh
q zf
q avo
q xfm
q gvt
r os
r mb
r cb
s ot
s ns
s qf
s cp
s rd
s kr
s vj
s vv
s obm
s ohg
t te
t as
t og
t xj
t oy
t uh
t nh
t odx
t nej
u iw
u cn
u xeb
u gba
u osf
u gjg
v xt
v cy
v my
v osx
v faw
w im
w ny
w aj
w mv
w gl
w cy
w pr
w nr
w sj
w vdb
x rs
x zb
x tso
y is
y ub
y mm
y kd
y sy
y lj
y ry
y lt
y vv
y jh
y qds
y mpf
y lfq
z es
z sh
z ij
z chi
z obp
in x
st u
ur ws
he i
he qn
le hu
es g
es qc
lo a
lo s
lo py
ot mg
um w
ze v
ze au
ck zu
me o
me go
at h
uf o
ra e
ib dp
em of
pe am
id b
ic vs
ay la
ay bf
ia i
si zv
irm n
ft m
ap k
oc mv
ed k
ed xm
gn b
ak se
fa hd
ax b
ax fa
ns rs
qu g
qu s
il f
il h
im m
im yv
as b
as s
if uc
ce hw
wl b
wl f
cc z
pd c
ps ff
ll wn
ip y
zk y
ub l
ub v
zh c
jb zs
jb lk
jb su
jb yu
zv hp
iw km
qy t
qy sy
zb ma
xj x
iy h
iy lh
qd a
qh h
xb iq
xr w
qk zj
xw b
mm yr
gj c
gj qd
gb he
gk ye
gk cx
qv v
qv kd
gf yz
gp nv
zm j
oj g
oj i
gv s
uv wl
uv mg
qs o
zn z
xm g
zt p
zt t
zt bh
rb yp
rb tr
ih mo
qp ab
up j
qe uw
nv xg
mh m
mv ik
xe qa
xe jg
mb z
xd x
oe j
gs b
gs wr
xy jj
ud b
zl w
md aq
md vn
qr me
fw pu
kj tt
xl zm
gr j
kb ie
cr p
zr g
zr h
zr j
zr n
zr fm
aw z
aw bx
ue q
gl n
ae p
mw d
pv ar
ie q
cj f
cj cm
nh m
ky d
pw i
ice p
pb hg
fd k
vb hr
lb zh
lb fo
rh j
am k
cw xi
gm q
vy xx
pj gy
cf o
kr l
sb u
pr u
qz i
cm g
cm i
kw wj
rj tp
gx q
kt ym
lr i
gu u
xx z
hb zy
hb xe
nn iw
ig i
aa u
lv tl
fr n
fr v
bb xx
tt ul
mr n
jd pg
za u
sr og
nr mc
xg c
mf fu
zi qp
hou z
jh pw
gz z
ln m
ln x
oq x
vf cu
mk z
db gy
zz x
tv xt
jr os
hh pn
wr ix
wr kq
zg a
sv i
dp cj
fn z
ua qg
fc a
jw v
jw xg
tk fy
js ly
zq se
tn qj
ds kn
yw kj
yw oo
je ph
vk um
vl kh
vt xu
nu z
cu z
wg ic
kz rs
dk ly
hj gq
ki gm
nq qh
uo ec
yk ak
ba gh
wv um
el in
ku oa
sk ql
tc wy
ro oc
sc ct
vx qz
no qu
da ip
bc gc
so ql
wtr m
ffh n
lnh i
ius q
ool p
ool s
jqk v
pfd s
bxs g
vrb h
zih m
gxp v
gme e
ylw u
jhy a
kwj e
msh t
hil a
dxp f
eah k
dcs c
gqw t
hxv k
fgm s
niw s
dtp f
ixl z
soz g
fpb h
tck z
wed p
fhe b
yow m
fkb r
bnt d
svy t
ucn e
b uv
c ps
e qv
e uv
f cb
f eh
g ab
h ak
l rj
n xy
o en
u ih
w rv
y mt
y kt
z ov
nd i
iv y
vg rt
ok m
om o
la cb
zp x
qr z
nb x
lv e
oo he
ux a
ht aj
a uw
b at
b ld
b qw
b xk
b tb
c qsu
c zet
c uvu
d cv
d pb
d rv
d fg
e gk
e vh
e pj
f cs
f pw
f ph
f seu
g qj
g jb
h le
h ch
h ol
h og
h ip
h gb
h wy
h jh
h ibu
i un
j zy
j lj
j vf
j cjl
j thj
k ib
k lh
l al
l qf
l vd
l cw
l kw
m nj
n rs
n up
n ifw
o ir
o oj
p le
p ge
p te
p gw
p lm
q ct
q zh
q zd
s fwc
t zyx
u ow
u as
u gl
u uma
u qpa
v st
v cd
v cs
v ky
v lco
w en
w rb
w fh
w fw
w mw
w vd
x uf
x ok
x upy
y ll
z ct
z aj
z xy
on xq
rr v
um c
mp e
mp yg
an n
an wv
ra i
ul hm
ad l
ia ke
si g
si w
ut h
ger n
od ay
od rv
not q
if e
xp o
om d
om ag
ll nc
ec bz
zk s
qw y
la q
xk k
iy f
uj sm
ik rb
qk a
uk i
mm im
xv hw
gf s
gf u
ah uq
zp b
zt d
gd j
xc r
lh z
gt v
fv i
xs cf
ud o
ud sg
zl it
kj wu
mw ql
cj s
cy xc
tj cc
vy si
km i
cm l
vv rh
lm g
aa q
fp a
fp i
oo x
cz q
gg q
rw kt
xu x
dh zj
yh mw
qq o
lu ik
pk xm
mg a
ek lo
eb rb
ef nr
ya af
hat f
sc oh
yiy h
aih s
dfj a
kts u
xgf i
kkh x
nkh t
vvb w
duv f
egq i
few t
lle e
fkm n
gad c
drv l
1 8
3 7
A Q
B H
B M
L A
M A
M C
M J
M L
O F
O U
Q A
S G
V R
V T
Y H
Y Z
Y a
a is
a ck
a zd
a ioa
a zeq
a zfs
b es
b mp
b ra
b sh
b gb
b up
b ie
b kw
b nw
b hd
b ws
b sv
b chm
b zcq
b inv
b usz
c at
c arr
c ij
c uw
c znb
c fwg
d oc
d ov
d gh
d ab
d pw
d vh
d ss
d km
d td
d bd
d fm
d sn
d fe
d ws
d quw
d qjo
d reg
d mkx
d zau
e ab
e wj
e lb
e by
e pp
e ln
e qnw
e axs
e eso
f io
f or
f rr
f ra
f qd
f lw
f sd
f fmu
f lpn
g qk
g ndm
g olf
g uei
h rr
h qf
h mv
h cj
h cy
h vr
h ozo
i st
i is
i im
i xkq
j ol
j ok
j og
j zh
j mm
j cb
j xl
j hb
j nr
j vp
j zpf
j vdb
j xro
k zv
k oy
k gb
k uv
k zd
k qf
k kj
k mw
k kez
k iei
k laz
l qb
l gf
l zn
l pj
l vhf
m ny
m oy
m fh
m rh
m gx
m lp
m fk
m lf
m kdk
m ccb
n vg
n il
n xk
n ab
n kb
n gw
n pw
n py
n kp
n lwz
n zfg
n zdk
n gmx
o K
o qj
o zf
o xh
o qvq
p er
p at
p of
p av
p uw
p nn
q en
q ov
q idf
q qlh
q xpt
r qn
r pv
r td
r upw
r tlg
s al
s us
s rb
s ql
s fv
s cb
s my
s wn
s ac
s wt
s avo
s kef
s zdt
t ze
t ge
t oh
t vf
t gvr
u ol
u ak
u zy
u cb
u gw
v al
v mp
v ate
v zm
v qp
v lb
v cm
v kw
v ml
v lta
v xei
w on
w ze
w ble
w em
w id
w uj
w gj
w gf
w uv
w uh
w vv
w sr
w vp
w znw
w cms
w uky
w stp
x xf
x qd
x uv
x ofd
x zpv
x enw
x oyl
y er
y ly
y nc
y qh
y fj
y mv
y qcm
y uga
z od
z zk
z gyh
z imq
z ifh
z los
in u
re c
cl a
cl r
io d
io qs
io hy
ur ih
he f
he uf
ar kb
ar ie
or kw
al j
on w
on zn
se a
lo dh
nt r
ot ro
ou kh
um g
um j
mp z
mp jm
ze m
un x
me ta
ge g
ge mg
of n
uf c
uf oc
ct ar
dd q
ch wu
ib up
iv j
iv iv
em d
pe nc
ow uj
ad t
ay iz
ia wy
ia mn
vg b
vg iy
vg ql
ft ki
ap a
ap nx
ith d
lse t
cd gs
oc jl
gn n
gn v
tw wu
fa e
fa h
ov n
ax g
ax p
ax nc
ns l
ns s
ns lx
te c
te zh
te we
not p
qu z
il p
ke p
if vt
xp lo
xp rf
ce lo
wl k
wl w
cc j
ny cb
us r
us fj
om ho
ld tk
ec uq
kn f
og k
vw da
rs ch
ip by
zk x
qb w
ub zl
zy j
zv l
zv ie
qy y
zb m
xj wx
ik g
ik cn
ik lg
ob cq
ob bo
oy vp
xf b
xf q
xf u
xf rt
qd n
qd rb
qh nb
zw k
zw u
zw ze
xb bc
xr fb
qk lk
qk rm
zf x
zf sf
uk p
uk il
mm ut
mm ww
gb gq
xv b
xv p
xv fv
xv az
gk yv
qv u
qv ti
zm q
gv de
gv fw
zd b
zd sz
qs d
qs m
zn o
zt o
gd i
xh b
uy kh
uy wg
qf b
ql ig
gy tw
qp j
zs jh
up mz
qe f
qe ic
fj lg
qc a
qc sn
uh ap
fh yh
wj wm
lh kd
lh sn
nv zi
nv nx
fv ny
xd iz
gs d
xy an
ud i
zl cn
fb v
qr m
qr or
cs so
cv ta
kj go
fy on
fy gi
mj io
mj dn
gr m
kb wx
cr d
gl si
mw ul
mw xx
nh hv
ky mq
mt oa
pw mx
rd q
rd bh
pb nl
lb so
vd sn
cn q
cn xe
af g
af u
qm u
tb mt
vy h
lw qo
cf fp
ww ze
ww fi
kr tk
sb sh
pr v
km kb
kf ay
ey va
oz q
sd ns
gx z
vv po
wb cf
lr t
gu i
hy wg
xx i
lm c
lm x
ls ow
xz o
xz x
td nr
lv t
fr x
cz g
lp c
gg a
gg c
uu ic
za z
yd zw
yd qs
hd ym
iq a
iq on
nr q
nr zp
bd gk
nk of
ty u
ty et
tl qe
tl ui
cif s
au x
wn ff
dh rb
kk x
kk xn
sn gn
bj ly
we ot
we qs
we ks
ln zd
oq xy
tp mq
ye qp
oi qy
zu z
zu oa
gc g
ve l
ve xp
zz vw
ui gs
qq og
wr al
lk i
sv ib
sv ui
zx iu
dy ur
dy ow
bs pe
vs cj
zo xx
kq zl
hs ql
zq od
zq xv
rm uv
xa oh
dr nr
ds nk
lg gn
yr ik
wk gg
vq ir
vk qh
bk ax
sl ax
sl ii
vl xc
hl io
jl nk
wg ai
pq qw
ga o
dt ot
hu it
va gt
pl uu
rk gd
cg og
yn qe
ef ge
ef qr
vc ra
nx gj
ku ae
wp lp
tc xm
tc fb
ej ge
yg id
bz xz
dg iv
nm fs
eu xm
eu cw
ko xp
ko zt
dl gh
vx vg
pg xt
ei qc
ev cl
ev lv
ev zo
bc oe
na an
ng zp
pi iu
hz ql
ea aj
wc in
bo xr
do iu
kvw b
ygd g
fot a
exs s
xik c
nzy l
nzy o
oql c
dgv e
pzb f
jaf n
ggb m
fum q
fpv y
oqk o
juv o
zqy e
wre y
vge f
rpj l
xqh c
zxh d
bot a
ykj t
ffv q
haf q
qok z
btr f
eut u
mxb h
xxy x
dxv u
nqh g
nem n
wcl j
bne x
fry y
rne q
sah m
azp q
uax p
pqe x
txf n
wps b
wzd y
bub p
ejr g
joo q
qal h
bsp k
cid i
drw m
eje g
jls m
zun f
scy t
gmv a
swt o
a cs
h ls
k cv
k sd
n qd
o qtq
p ck
p xt
p ogu
s av
s ob
t kez
w le
x xt
x xvc
y un
y kw
z xvj
al gx
nt m
nt kh
nt wg
me vb
ul h
pe ol
ay b
vg c
kn b
et pc
xj hr
qd vi
xr uk
xv m
ql v
xe l
ud id
zl s
qr u
mj r
kv pk
uq q
uu o
sn iq
zu g
vr p
fap n
lzm c
spw b
tzj d
nut m
ymb q
eil w
fzw r
rtj z
ybb e
a glf
b zy
b gd
b fw
b mf
b pp
b wn
b odi
c ot
d nh
d nk
d cif
d yh
d frq
d twb
e gyz
f ec
f fd
f lb
f cn
g ly
g ih
g mb
g obm
g qrq
h lo
h as
h os
h vj
h fe
h ksx
i qj
j up
k ww
k sb
l zj
l ss
m le
m lo
m fj
m qr
m fs
m gtp
n ra
n zj
n uv
n rb
n uy
o iw
p ol
p jb
p oyb
p mjx
p qrl
q cl
q xk
q qh
r og
r zj
r mm
r ml
s pd
s zh
s uh
s wj
s vb
t he
t it
t ut
t qb
t kw
t xnl
t azg
u zrx
u ojc
v rs
v ry
v zai
w te
w xd
w cv
w ky
w nw
w zwf
w isq
w cjw
x op
x ob
y it
y of
y uf
y en
y zd
y fb
y nh
y hd
y ew
y bd
y be
y chg
z ut
z cv
z ozi
al s
on f
le xn
is ps
lo h
lo x
ot l
ot ck
ot rx
ou e
rr zf
ck mc
an m
at jw
of gv
uf pp
ct um
ct ik
ct wo
ir y
ra zv
dd ok
ib t
pe ce
ow c
ic nr
ay gi
ft f
ol c
cd w
oc b
xt ef
od uj
tw q
ns v
te lo
il z
il zb
wl q
om w
kn vs
vw z
rs w
ip g
zj cs
ub o
ub y
qw bw
la u
iw ds
xk tf
zb e
zb fs
oh sh
iy uk
ob y
qd rq
qh v
uk qt
xw pf
qv r
gp j
gv tg
rb ja
os o
nj wr
ab dc
qc s
fh hw
wj iw
gt pc
fv j
xe ou
gs fg
xy rn
qr hq
xl z
aw ny
ie ft
my ck
my at
my qh
sy yv
sy wo
rh c
am a
ry ue
gm k
gm ns
tb tb
sb v
iu iv
sd cf
kt ul
lr u
ls u
yy kr
uq gu
cz c
gg i
jd ax
ew qa
ew hi
rw es
sj vg
kk gf
vp ks
we jk
tp ga
bt oz
ws lt
ms l
js qy
rm qn
qx o
hm iy
ma cb
fq ch
wf qj
hv rs
hv mm
rf ge
dk xh
kc en
kg ae
su or
hg oz
sx ir
wp xe
yg zy
yc zt
eo jb
eo xk
lxv c
cnh m
uop f
rzy t
hne h
lur i
jft h
uip u
lut o
xny w
bxt j
cmy i
rqy f
rgg g
jns w
kcy j
kkw k
fpj j
tup p
elm n
kzp k
mzt f
rqv e
vew q
jla a
rzm z
6 1
8 0
8 1
8 4
9 2
9 5
B J
D Y
D o
E K
F B
G A
I H
K Z
L M
L c
L p
M Y
M t
N Z
N i
N q
P L
P q
Q W
Q Y
Q Z
R N
S Z
S l
T V
U G
X O
X S
Z M
Z N
Z S
Z b
a or
a arr
a ft
a jb
a zv
a iw
a gp
a ats
a axi
a siq
a ztj
a gxa
a gmg
a czo
b zv
b cr
b pb
b hy
b nn
b fr
b kp
b qjf
b sec
b ohn
b zpr
b oyq
b vws
b idz
b xxg
b ibl
b xmr
b fjq
b afe
b gjs
b uug
b npl
b cfm
c ow
c ed
c ny
c ab
c qe
c ue
c gtc
c uhm
c xfm
c uky
c ypp
c iwd
c iys
c wla
c qyq
c ftv
c uwj
c fyx
d zy
d md
d ph
d vj
d pt
d tl
d bh
d mn
d fu
d xwf
d xfz
d fwc
d zwe
d ayf
d qsr
d xei
d zwq
d abe
d fwu
d iuu
d gjx
d adh
d olr
d xmk
d qrd
d lsc
d igz
d lfe
d xwg
d znn
d npg
e me
e ts
e ap
e ov
e ik
e ob
e fh
e zl
e fw
e km
e pt
e fr
e esn
e ypq
e ubj
e ixg
e vvc
e emr
e ane
f R
f ed
f qb
f et
f oy
f zd
f fj
f cp
f py
f ox
f sth
f xpr
f gtn
f ntz
f prp
f uqo
f zlu
f qpc
f qyw
g ut
g ke
g pd
g vw
g gj
g cv
g ped
g nti
g qzc
g ojv
g wlg
g gtd
g zco
h lib
h cd
h fw
h cr
h pb
h nk
h sj
h fm
h oyq
h qyj
h mea
h wlr
h xro
h ifp
h zii
h ujn
h ady
h ghb
h xnp
h zzo
h nsj
i pe
i wl
i gki
i ufg
i ctf
i ufs
j ar
j lo
j cd
j ax
j zs
j cy
j sd
j wn
j wh
j nl
j qvq
j qeu
j ufw
j qjg
j zrq
j qlf
j xdz
j kyh
j upf
j xte
j ifs
j xza
j mpn
j xmn
k Z
k fw
k cw
k kr
k xfl
k zmd
k arg
k ovq
k uxo
k zbw
k vvo
k mhy
l or
l ct
l ij
l mm
l uy
l uh
l gr
l vh
l cfk
l rex
l fjs
l ukd
l zdo
l xlp
l xri
l upv
l mmx
l xmo
m V
m ou
m xt
m ov
m kr
m oek
m qco
m orf
m ipj
n es
n me
n ay
n xs
n kv
n asu
n ifc
n ikh
n itd
n ita
n kvo
n gzo
n lhj
n chq
n gtq
n pdc
o et
o osf
o apn
o zbk
o zmr
o qhy
o ikt
p re
p ou
p gs
p ne
p ufy
p apn
p ats
p xrh
p nno
p qlh
p deo
p anw
p urv
p asj
q N
q ur
q uf
q ed
q rs
q atd
q gvr
q iax
q stl
q loq
q siz
q zpy
q zlk
r yp
r iw
r ky
r tt
r mf
r pn
r ufw
r ogo
r ffu
r fmx
s cl
s uf
s irm
s ax
s ny
s uj
s qp
s wy
s pt
s mn
s crz
s ntc
s qbp
s mwm
s ltc
s shs
s qwr
s qhb
s aai
s lok
s opf
s kvp
t ak
t age
t zb
t qn
t mw
t ija
t sew
t qsn
t vht
t qlj
t tsk
t fef
t ocw
t qcr
t xna
t lvl
t cxo
t sei
t gkx
u es
u ot
u vg
u ec
u xj
u zm
u gy
u arq
u zkr
u qzq
u ukj
u qrq
u ivr
u xwt
u vgu
u nte
v nd
v xp
v uj
v zs
v mj
v nh
v vd
v tt
v uek
v ogv
v ndm
v rvn
v iym
v iap
v knv
v peg
v ohx
w se
w nt
w ou
w ul
w ay
w rs
w ip
w fb
w km
w ey
w kt
w tl
w jbd
w cjp
w ksx
w zfy
w qfy
w azx
w krw
x ing
x are
x qb
x qy
x gyh
x zyc
x idf
x oyb
x gkt
x oee
x adr
x xte
x iep
x gkp
y or
y uw
y cs
y tl
y wn
y we
y wh
y mc
y xeb
y uek
y omn
y itx
y qjh
y ftq
y nnq
y cmx
y zbr
y vyd
z zy
z ob
z ah
z cs
z atd
z odx
z nto
z ocz
z tru
z avt
z gpp
z ume
re th
re ks
re ig
re xa
re hv
re pm
st qp
cl tv
cl qa
io w
io ak
io pl
io sk
ur kh
ur cy
he o
he t
he cv
ar j
ar x
ar av
ar zn
ar nj
or rl
or vi
al a
al rj
al ag
al hm
on es
on ed
on fh
le bb
se bp
is jp
es is
es ll
es iy
lo hs
nt j
ot ac
ou zv
rr j
rr nf
rr fx
rr ni
um m
um es
um cj
mp dw
mp ep
ze n
ze et
un l
un cs
un rd
nd r
nd lr
it gd
it lr
it dk
ck ok
ck nl
ck px
me zr
me vp
ge ul
ge ik
ge gt
an zh
an iq
an fe
an yv
an mu
at dh
of ts
of wq
of li
ly m
ly tw
ly rl
uf pt
ct ll
ct vp
ct sx
ir q
ir kj
ir by
ir ag
ir wv
ir yl
op id
op ye
op yb
ra a
ra qa
dd lm
dd co
ul cf
ch zd
ch jf
ib k
ib id
ib ab
ib lq
rac q
ts zj
ts kd
iv cy
iv vy
iv cm
iv mo
em o
pe i
pe v
pe jh
pe ht
pe hq
ow qj
ow ob
ow ya
ow pi
lib b
ad s
ad wj
ad yv
ad go
ad kc
ad jz
id lt
id oz
ic dd
ic dy
en qp
ay yv
ay yk
si l
ut gn
ut vn
ut wt
ft k
ft w
ft xd
ft xx
ft bn
ft cg
ap j
ap uk
ap uv
ap xl
ol ln
lse s
cd m
cd rd
cd gq
cd ha
oc p
ed vw
ed qh
xt n
xt gb
xt zp
gn ap
gn ij
gn vf
ak of
ak jy
od za
od tn
od ii
son a
tw mt
tw jw
fa ac
ov li
ov jo
ax w
ok d
ok t
ok jd
ok kq
ok df
ns at
ns oo
ns cu
ns ao
