{"<pad>":0,"<unk>":1,"<bos>":2,"<eos>":3,"<STATE_FOCUS>":4,"<STATE_CONFUSE>":5,"<STATE_OVERLOAD>":6,"<ATTEMPT_1>":7,"<ATTEMPT_2>":8,"<ATTEMPT_3>":9,"<NO_HINT>":10,"!":11,"\"":12,"#":13,"$":14,"%":15,"&":16,"'":17,"(":18,")":19,"*":20,"+":21,",":22,"-":23,".":24,"/":25,"0":26,"1":27,"2":28,"3":29,"4":30,"5":31,"6":32,"7":33,"8":34,"9":35,":":36,";":37,"<":38,"=":39,">":40,"?":41,"@":42,"A":43,"B":44,"C":45,"D":46,"E":47,"F":48,"G":49,"H":50,"I":51,"J":52,"K":53,"L":54,"M":55,"N":56,"O":57,"P":58,"Q":59,"R":60,"S":61,"T":62,"U":63,"V":64,"W":65,"X":66,"Y":67,"Z":68,"[":69,"\\":70,"]":71,"^":72,"_":73,"`":74,"a":75,"b":76,"c":77,"d":78,"e":79,"f":80,"g":81,"h":82,"i":83,"j":84,"k":85,"l":86,"m":87,"n":88,"o":89,"p":90,"q":91,"r":92,"s":93,"t":94,"u":95,"v":96,"w":97,"x":98,"y":99,"z":100,"{":101,"|":102,"}":103,"~":104,"¡":105,"¢":106,"£":107,"¤":108,"¥":109,"¦":110,"§":111,"¨":112,"©":113,"ª":114,"«":115,"¬":116,"®":117,"¯":118,"°":119,"±":120,"²":121,"³":122,"´":123,"µ":124,"¶":125,"·":126,"¸":127,"¹":128,"º":129,"»":130,"¼":131,"½":132,"¾":133,"¿":134,"À":135,"Á":136,"Â":137,"Ã":138,"Ä":139,"Å":140,"Æ":141,"Ç":142,"È":143,"É":144,"Ê":145,"Ë":146,"Ì":147,"Í":148,"Î":149,"Ï":150,"Ð":151,"Ñ":152,"Ò":153,"Ó":154,"Ô":155,"Õ":156,"Ö":157,"×":158,"Ø":159,"Ù":160,"Ú":161,"Û":162,"Ü":163,"Ý":164,"Þ":165,"ß":166,"à":167,"á":168,"â":169,"ã":170,"ä":171,"å":172,"æ":173,"ç":174,"è":175,"é":176,"ê":177,"ë":178,"ì":179,"í":180,"î":181,"ï":182,"ð":183,"ñ":184,"ò":185,"ó":186,"ô":187,"õ":188,"ö":189,"÷":190,"ø":191,"ù":192,"ú":193,"û":194,"ü":195,"ý":196,"þ":197,"ÿ":198,"Ā":199,"ā":200,"Ă":201,"ă":202,"Ą":203,"ą":204,"Ć":205,"ć":206,"Ĉ":207,"ĉ":208,"Ċ":209,"ċ":210,"Č":211,"č":212,"Ď":213,"ď":214,"Đ":215,"đ":216,"Ē":217,"ē":218,"Ĕ":219,"ĕ":220,"Ė":221,"ė":222,"Ę":223,"ę":224,"Ě":225,"ě":226,"Ĝ":227,"ĝ":228,"Ğ":229,"ğ":230,"Ġ":231,"ġ":232,"Ģ":233,"ģ":234,"Ĥ":235,"ĥ":236,"Ħ":237,"ħ":238,"Ĩ":239,"ĩ":240,"Ī":241,"ī":242,"Ĭ":243,"ĭ":244,"Į":245,"į":246,"İ":247,"ı":248,"Ĳ":249,"ĳ":250,"Ĵ":251,"ĵ":252,"Ķ":253,"ķ":254,"ĸ":255,"Ĺ":256,"ĺ":257,"Ļ":258,"ļ":259,"Ľ":260,"ľ":261,"Ŀ":262,"ŀ":263,"Ł":264,"ł":265,"Ń":266,"ĠĠ":267,"in":268,"ĠĠĠĠ":269,"int":270,"re":271,"Ġ<":272,"Ġint":273,"TE":274,"Ġp":275,"Ġ{":276,");":277,"st":278,"Ġ=":279,"de":280,"Ġa":281,"Ġ}":282,"Ġi":283,"Ġm":284,"cl":285,"Ġpr":286,"(\"":287,"io":288,"Ġprint":289,"Ġprintf":290,"Ġre":291,"ude":292,"Ġ0":293,"Ġt":294,"Ġma":295,"ur":296,"urn":297,"he":298,"turn":299,"incl":300,"include":301,"Ġ#":302,"Ġf":303,"Ġreturn":304,"std":305,"TA":306,"MP":307,"AT":308,"MPT":309,"STA":310,"TEMPT":311,"ATTEMPT":312,"STATE":313,"Ġmain":314,"Ġb":315,"()":316,"\",":317,"Ġc":318,"stdio":319,"Ġ/":320,"Ġs":321,"Ġ(":322,"(\"%":323,"Ġ//":324,"er":325,"ĠĠĠĠĠĠĠĠ":326,"ar":327,"US":328,"or":329,"al":330,"BU":331,"ĠBU":332,"Ġn":333,"ing":334,"on":335,"ĠBUG":336,"le":337,"Ġthe":338,"se":339,"Ġx":340,"is":341,"es":342,"Ġfor":343,"lo":344,"nt":345,"ot":346,"\");":347,"ou":348,"rr":349,"Ġ1":350,"NF":351,"CO":352,"USE":353,"NFUSE":354,"CONFUSE":355,"FO":356,"CUS":357,"FOCUS":358,"ER":359,"OA":360,"OV":361,"LOA":362,"ERLOA":363,"OVERLOA":364,"OVERLOAD":365,"um":366,"mp":367,"ion":368,"ze":369,"un":370,"nd":371,"Ġw":372,"Ġ*":373,"ize":374,"it":375,"Ġst":376,"ck":377,"sing":378,"ree":379,"me":380,"Ġfree":381,"Ġarr":382,"ge":383,"an":384,"at":385,"Ġch":386,"Ġd":387,"++":388,"));":389,"NO":390,"of":391,"heck":392,"are":393,"ly":394,"Ġif":395,"ble":396,"Ġ%":397,"uf":398,"Ġv":399,"Ġchar":400,"ct":401,"Ġl":402,"Ġsum":403,"Ġe":404,"ĠC":405,"Ġand":406,"Ġin":407,"NT":408,"HI":409,"HINT":410,"];":411,"Ġbe":412,"ir":413,"izeof":414,"ĠT":415,"op":416,"Ġto":417,"Check":418,"sizeof":419,"loc":420,"ile":421,"ore":422,"++)":423,"omp":424,"ra":425,"dd":426,"[]":427,"};":428,"issing":429,"Ġlin":430,"ul":431,"Ġmissing":432,"fore":433,"Ġbefore":434,"Ġ2":435,"clo":436,"arr":437,"ch":438,"Ġy":439,"Ġcal":440,"Ġ\"":441,"ouble":442,"Ġu":443,"Ġde":444,"ib":445,"Ġcon":446,"mal":447,"malloc":448,"str":449,"ction":450,"Ġis":451,"rac":452,"Ġbrac":453,"ts":454,"iv":455,"Ġ'":456,"Ġclo":457,"oint":458,"Ġval":459,"ment":460,"em":461,"pe":462,"Ġon":463,"ow":464,"Ġ3":465,"lib":466,"Ġpoint":467,"*)":468,"stdlib":469,"his":470,"Ġbuf":471,"Ġh":472,"ain":473,"DO":474,"ODO":475,"ĠTODO":476,"Ġ+":477,"Ġsw":478,"Ġdouble":479,"Ġ5":480,"Ġpointer":481,"ad":482,"id":483,"ange":484,"ic":485,"Ġfun":486,"Ġfunction":487,"Ġuse":488,"Ġonly":489,"Ġca":490,"en":491,"ame":492,"Ġvalu":493,"Ġ==":494,"Ġdiv":495,"Ġmax":496,"run":497,"Ġfir":498,"Ġfirst":499,"hen":500,"hange":501,"ay":502,"Ġwh":503,"Ġcalc":504,"zer":505,"zero":506,"Ġit":507,"ĠN":508,"Ġthis":509,"ia":510,"Ġ&":511,"..":512,"Ġhow":513,"10":514,"si":515,"vg":516,"ision":517,"]);":518,"got":519,"Ġ4":520,"irm":521,"Ġcase":522,"udent":523,"Ġforgot":524,"Ġstudent":525,"err":526,"ut":527,"ful":528,"art":529,"firm":530,"gain":531,"Ġrun":532,"Ġerr":533,"Ġpart":534,"Ġagain":535,"Ġread":536,"Ġcare":537,"ĠComp":538,"ĠChange":539,"ĠThen":540,"Ġline":541,"Ġconfirm":542,"fully":543,"Ġerror":544,"Ġcarefully":545,"ĠCompile":546,"iti":547,"alize":548,"itialize":549,"can":550,"canf":551,"\";":552,"ft":553,"Ġcomp":554,"string":555,"Ġun":556,"Add":557,"ap":558,"buf":559,"Ġbrace":560,"Ġclosing":561,"Ġby":562,"',":563,"','":564,"Ġlo":565,"Ġdivision":566,"ol":567,"Use":568,"Ġj":569,"Ġ<=":570,"Ġwhile":571,"Ġscanf":572,"Ġlines":573,"Ġ9":574,"ith":575,"lse":576,"Ġstr":577,"Ġvalue":578,"aria":579,"ariable":580,"cd":581,"gets":582,"Ġ7":583,"Ġdecl":584,"Ġavg":585,"otal":586,"Ġg":587,"LL":588,"def":589,"ULL":590,"ĠNULL":591,"Ġcompare":592,"Ġelse":593,"initialize":594,"initialized":595,"ger":596,"Ġ6":597,"oc":598,"Ġloop":599,"Ġwith":600,"Ent":601,"Enter":602,"Ġadd":603,"ed":604,"Ġvariable":605,"fter":606,"Ġno":607,"Ġare":608,"ate":609,"itch":610,"Ġswitch":611,"Ġnot":612,"ses":613,"ron":614,"olon":615,"Ġtotal":616,"Ġsem":617,"icolon":618,"Ġsemicolon":619,"one":620,"open":621,"res":622,"Ġwron":623,"Ġwrong":624,"xt":625,"ere":626,"gn":627,"Ġused":628,"Ġuninitialized":629,"--":630,"Ġ8":631,"Ġ12":632,"ak":633,"ire":634,"Ġ\");":635,"Ġso":636,"Arr":637,"Sum":638,"ĠsumArr":639,"Ġ+=":640,"ĠsumArray":641,"Ġafter":642,"od":643,"son":644,"ype":645,"Ġtmp":646,"Ġgcd":647,"Per":648,"ĠPer":649,"ĠPerson":650,"tw":651,"Ġbraces":652,")(":653,")/":654,"]));":655,"fa":656,"Ġswap":657,"++;":658,"lement":659,"lloc":660,"Ġ>":661,"ared":662,"Ġdeclared":663,"Ġstate":664,"Ġstatement":665,"Ġclose":666,"ĠBUF":667,"dex":668,"Ġyou":669,"You":670,"Ġcompares":671,"'.":672,"Ġindex":673,"mat":674,"cmp":675,"Ġformat":676,"ov":677,"her":678,"nc":679,"ax":680,"ok":681,"Ġend":682,").":683,"th":684,"Ġas":685,"ns":686,"te":687,"Ġ'\\":688,"not":689,"qu":690,"Ġwhe":691,"ult":692,"tes":693,"low":694,"inis":695,"Ġbytes":696,"ory":697,"il":698,"Ġmem":699,"Ġmemory":700,"ation":701,"Ġaddres":702,"eger":703,"Ġinteger":704,"Ġzero":705,"Ġat":706,"Ġcheck":707,"im":708,"yes":709,"Ġor":710,"Ġan":711,"side":712,"Ġfgets":713,"ess":714,"Ġproc":715,"Ġprocess":716,"ke":717,"as":718,"oper":719,"Ġ10":720,"!=":721,"Ġ!=":722,"age":723,"sign":724,"Ġassign":725,"Ġdefa":726,"Ġdefault":727,"double":728,"reak":729,"Ġbreak":730,"put":731,"defin":732,"Ġopen":733,"ition":734,"ther":735,"Ġwhether":736,"fgets":737,"two":738,"20":739,"The":740,"Ġ'}":741,"Ġne":742,"if":743,"yp":744,"av":745,"Ġ32":746,"...":747,"ody":748,"xp":749,"Ġbody":750,"Ġdire":751,"--)":752,"Ġdirection":753,"Ġbelow":754,"Ġmalloc":755,"led":756,"ce":757,"wl":758,"Ġ)":759,"Ġcalled":760,"same":761,"Ġaddresses":762,"(\"%.":763,"ref":764,"umb":765,"Ġelement":766,"Ġderef":767,"erenc":768,"Ġdereferenc":769,"Ġdereferencing":770,"dition":771,"Ġcondition":772,"Ġnumb":773,"Ġnumber":774,"ntere":775,"Ġentere":776,"Ġentered":777,"sh":778,"Ġmu":779,"arts":780,"Ġstarts":781,"Ġusing":782,"Ġstore":783,"Ġvalid":784,"cc":785,"32":786,"ny":787,"pd":788,"us":789,"OK":790,"\")":791,"Ġstd":792,"strcmp":793,"Ġstdin":794,"om":795,"Ġinside":796,"out":797,"ps":798,"Ġstring":799,"Ġvalues":800,"ld":801,"qj":802,"'};":803,"Ġ{'":804,"<=":805,"[],":806,"uct":807,"Ġassignment":808,"ll":809,"len":810,"ec":811,"ded":812,"kn":813,"tr":814,"oid":815,"Ġblo":816,"Ġblock":817,"og":818,")-":819,"=(":820,"strlen":821,"--;":822,"Ġstruct":823,"name":824,"Ġ{\"":825,"Ġage":826,"Ġtype":827,"Ġname":828,"Ġtypedef":829,"done":830,"Ġinten":831,"Ġbut":832,"Ġintended":833,"Ġprot":834,"otype":835,"Ġprototype":836,"Ġstatements":837,"(&":838,"Ġvoid":839,"txt":840,"arger":841,"meth":842,"Ġlarger":843,"Ġ20":844,"Ġsometh":845,"Ġsomething":846,"inishe":847,"vw":848,"rs":849,"Ġcall":850,"ip":851,"FI":852,"zj":853,"ines":854,"LE":855,"))":856,"Can":857,"Lines":858,"Max":859,"ĠFI":860,"input":861,"Ġfile":862,"Ġfclo":863,"Ġfopen":864,"Ġ(!":865,"BUF":866,"Ġ128":867,"define":868,"Cannot":869,"ĠFILE":870,"Ġfclose":871,"gh":872,"zk":873,"qb":874,"ub":875,"zh":876,"Ġ16":877,"qw":878,"Ġ'}'.":879,"Ġ15":880,"jb":881,"Ġrequ":882,"Ġrequire":883,"zy":884,"zv":885,"la":886,"Ġ30":887,"iw":888,"ij":889,"et":890,"xk":891,"qy":892,"zb":893,"oh":894,"xj":895,"iy":896,"uj":897,"Ġ25":898,"ik":899,"ob":900,"oy":901,"xf":902,"qd":903,"qh":904,"zw":905,"xb":906,"xr":907,"qk":908,"zf":909,"uk":910,"xw":911,"mm":912,"gj":913,"This":914,"gb":915,"xv":916,"gk":917,"qn":918,"qv":919,"aj":920,"gf":921,"gp":922,"zm":923,"oj":924,"Ġ40":925,"alid":926,"gv":927,"uv":928,"ah":929,"zd":930,"qs":931,"zn":932,"ove":933,"Ġimp":934,"Ġimplement":935,"zp":936,"xm":937,"zt":938,"gd":939,"xh":940,"rb":941,"uy":942,"qf":943,"ql":944,"uw":945,"Ġ50":946,"ih":947,"xc":948,"gy":949,"os":950,"ates":951,"Ġsame":952,"qp":953,"zs":954,"nj":955,"Ġpare":956,"nthe":957,"Ġparenthe":958,"ab":959,"Ġalloc":960,"Ġ99":961,"aration":962,"Ġdeclaration":963,"up":964,"qe":965,"fj":966,"qc":967,"uh":968,"ast":969,"Ġcalling":970,"erm":971,"fh":972,"wj":973,"lh":974,"gt":975,"nv":976,"mh":977,"fv":978,"ress":979,"Ġarray":980,"Ġstrcmp":981,"mv":982,"xe":983,"Ġterm":984,"Ġtermin":985,"oth":986,"mb":987,"pect":988,"Ġstores":989,"wy":990,"xs":991,"Ġwhat":992,"xd":993,"oe":994,"Ġmust":995,"cb":996,"gs":997,"xy":998,"Ġoper":999,"ud":1000,"Ġprinting":1001,"zl":1002,"md":1003,"fb":1004,"qr":1005,"qt":1006,"cs":1007,"cp":1008,"fw":1009,"cv":1010,"kj":1011,"fy":1012,"xl":1013,"mj":1014,";'":1015,"main":1016,"return":1017,"gr":1018,"kb":1019,"cr":1020,"zr":1021,"aw":1022,"ue":1023,"ator":1024,"xn":1025,"gl":1026,"rou":1027,"ae":1028,"gw":1029,"mw":1030,"kd":1031,"Ġinclude":1032,"pv":1033,"Ġproper":1034,"Ġends":1035,"ie":1036,"kh":1037,"cj":1038,"nh":1039,"cy":1040,"ky":1041,"mt":1042,"pw":1043,"rd":1044,"ice":1045,"my":1046,"pb":1047,"sy":1048,"oks":1049,"fd":1050,"vb":1051,"lj":1052,"vh":1053,"lb":1054,"vd":1055,"tj":1056,"rh":1057,"cn":1058,"py":1059,"af":1060,"lete":1061,"am":1062,"Finis":1063,"finishe":1064,"Ġunfinishe":1065,"Ġlooks":1066,"Finish":1067,"Ġunfinished":1068,"cw":1069,"nb":1070,"ry":1071,"gm":1072,"qm":1073,"ss":1074,"eds":1075,"tb":1076,"vy":1077,"Pr":1078,"lw":1079,"pj":1080,"ph":1081,"cf":1082,"ww":1083,"kr":1084,"Ġconte":1085,"sb":1086,"non":1087,"pr":1088,"ode":1089,"vj":1090,"Ġhas":1091,"Ġneeds":1092,"lt":1093,"iu":1094,"km":1095,"Ġstop":1096,"kf":1097,"Ġex":1098,"ey":1099,"Ġcode":1100,"qz":1101,"pt":1102,"cm":1103,"oz":1104,"Ġcau":1105,"kw":1106,"Ġvariables":1107,"sd":1108,"rj":1109,"gx":1110,"Ġcan":1111,"Ġrequired":1112,"vv":1113,"ne":1114,"wb":1115,"kt":1116,"lr":1117,"gu":1118,"fs":1119,"ks":1120,"hy":1121,"xx":1122,"lm":1123,"hb":1124,"nn":1125,"hw":1126,"ls":1127,"yy":1128,"ig":1129,"jj":1130,"xz":1131,"td":1132,"aa":1133,"qg":1134,"lv":1135,"fp":1136,"fr":1137,"kv":1138,"nw":1139,"oo":1140,"other":1141,"uq":1142,"xq":1143,"cz":1144,"bb":1145,"tt":1146,"kp":1147,"mr":1148,"eh":1149,"lp":1150,"oa":1151,"ix":1152,"jy":1153,"gg":1154,"uu":1155,"jd":1156,"za":1157,"yd":1158,"hd":1159,"sr":1160,"iq":1161,"ew":1162,"nr":1163,"uc":1164,"fk":1165,"np":1166,"Ġcases":1167,"esn":1168,"bd":1169,"wd":1170,"ang":1171,"ard":1172,"zc":1173,"jt":1174,"ook":1175,"ior":1176,"xg":1177,"lf":1178,"nk":1179,"mf":1180,"hav":1181,"ach":1182,"zi":1183,"ty":1184,"aq":1185,"fin":1186,"ox":1187,"Ġpla":1188,"Ġplace":1189,"ond":1190,"nds":1191,"hou":1192,"tl":1193,"nts":1194,"by":1195,"cif":1196,"jh":1197,"ag":1198,"pp":1199,"ail":1200,"Look":1201,"'t":1202,"oesn":1203,"ping":1204,"ward":1205,"Ġmove":1206,"eration":1207,"Ġchange":1208,"Ġchang":1209,"Ġdoesn":1210,"Ġeach":1211,"Ġtoward":1212,"Ġupd":1213,"Ġiteration":1214,"Ġterminates":1215,"Ġstopping":1216,"Ġchanges":1217,"Ġupdate":1218,"rv":1219,"sis":1220,"tch":1221,")).":1222,"Ġcou":1223,"Ġsizeof":1224,"ating":1225,"Ġmuch":1226,"Ġallocating":1227,"pects":1228,"Ġexpects":1229,"Ġcount":1230,"gq":1231,"rw":1232,"au":1233,"bh":1234,"xu":1235,"wn":1236,"az":1237,"lose":1238,"kee":1239,"Rem":1240,"dh":1241,"Remove":1242,"Free":1243,"wice":1244,"Ġtim":1245,"Ġtwice":1246,"Ġmany":1247,"Ġsec":1248,"Ġset":1249,"Ġbehav":1250,"Ġundefin":1251,"Ġcauses":1252,"Freeing":1253,"Ġtimes":1254,"Ġsecond":1255,"Ġbehavior":1256,"Ġundefined":1257,"nsu":1258,"Point":1259,"variable":1260,"Ġinitialize":1261,"Ġpoints":1262,"ill":1263,"Ġdefin":1264,"There":1265,"dic":1266,"Ġmatch":1267,"Ġopening":1268,"('":1269,")'.":1270,"Close":1271,"Ġmay":1272,"Ġexp":1273,"Ġ'('":1274,"Ġ')'.":1275,"Ġwithout":1276,"Ġparentheses":1277,"Ġparenthesis":1278,"ression":1279,"Ġmatching":1280,"Ġexpression":1281,"==":1282,"Ġpointers":1283,"Ġstrings":1284,"Ġcontents":1285,"fer":1286,"arb":1287,"ary":1288,";.":1289,"Both":1290,"ands":1291,"cates":1292,"total":1293,"Ġtrun":1294,"Ġtyp":1295,"Ġoperands":1296,"Ġtruncates":1297,"Ġtypes":1298,"sj":1299,"Ġits":1300,"gz":1301,"ier":1302,"yh":1303,"Div":1304,"Ensu":1305,"llow":1306,"Ġallow":1307,"isor":1308,"iding":1309,"Ġdivisor":1310,"Ġdividing":1311,"Division":1312,"Ensure":1313,"Ġallowed":1314,"ocus":1315,"ade":1316,"fm":1317,"kk":1318,"sn":1319,"bj":1320,"rash":1321,"Ġof":1322,"Change":1323,"Focus":1324,"scanf":1325,"ine":1326,"Ġinto":1327,");.":1328,"Ġinput":1329,"Ġaddress":1330,"Ġfinishe":1331,"().":1332,"Ġshou":1333,"Ġfinishes":1334,"Ġshould":1335,"After":1336,"vp":1337,"valid":1338,"Ġthen":1339,"Ġinvalid":1340,"Print":1341,"Con":1342,"we":1343,"Ġfail":1344,"Ġcrash":1345,"Ġwill":1346,"pens":1347,"Ġhap":1348,"sider":1349,"Ġallocation":1350,"Consider":1351,"Ġfails":1352,"Ġhappens":1353,"Valid":1354,"Ġlast":1355,"Ġindic":1356,"Ġindices":1357,"fe":1358,"ln":1359,"oq":1360,"rim":1361,"Using":1362,"Ġpast":1363,"Ġacc":1364,"Ġbou":1365,"esses":1366,"ndary":1367,"Ġone":1368,"Ġ<=).":1369,"Ġaccesses":1370,"Ġboundary":1371,"tp":1372,"ye":1373,"wh":1374,"Ġspe":1375,"Ġspecif":1376,"Ġflo":1377,"Ġspecifier":1378,"Ġfloat":1379,"oi":1380,"rap":1381,"vf":1382,"ows":1383,"sp":1384,"zu":1385,"gc":1386,"ml":1387,"br":1388,"tain":1389,"ull":1390,"\".":1391,"Trim":1392,"Un":1393,"ĠEnter":1394,"Ġkee":1395,"Ġpress":1396,"Ġwhen":1397,"Ġbuffer":1398,"Ġnewl":1399,"Ġkeeps":1400,"Ġnewline":1401,"In":1402,"mk":1403,"Ġcontain":1404,"Ġgarb":1405,"Uninitialized":1406,"Initialize":1407,"Ġgarbage":1408,"ink":1409,"yv":1410,"ve":1411,"ped":1412,"db":1413,"ike":1414,"xi":1415,"dj":1416,"zz":1417,"Th":1418,"tv":1419,"jr":1420,"ui":1421,"Ġhe":1422,"Ġ'#":1423,"aders":1424,"Ġheaders":1425,"ac":1426,"qq":1427,"Ġwrap":1428,">.":1429,"hh":1430,"Str":1431,"bout":1432,"Ġkn":1433,"Ġabout":1434,"eral":1435,"Ġnull":1436,"ings":1437,"iteral":1438,"Ġliteral":1439,"Ġwhere":1440,"Ġterminator":1441,"Think":1442,"Strings":1443,"Ġknows":1444,"Ins":1445,"vn":1446,"aris":1447,"Ġcomparis":1448,"Ġassigns":1449,"Ġoperator":1450,"Inspect":1451,"Ġcomparison":1452,"com":1453,"bt":1454,"pn":1455,"ux":1456,"wr":1457,"zg":1458,"ws":1459,"ht":1460,"lk":1461,"With":1462,"rect":1463,"Ġboth":1464,"Ġcor":1465,"Ġgrou":1466,"Ġnext":1467,"Without":1468,"rectly":1469,"Ġcorrectly":1470,"Ġgrouped":1471,"sv":1472,"be":1473,"mn":1474,"dp":1475,"zx":1476,"Ġ'}'":1477,"Ġclosed":1478,"Ġall":1479,"Ġlike":1480,"Ġbecom":1481,"Ġproperly":1482,"Ġbecomes":1483,"comp":1484,"Ġincomp":1485,"Ġincomplete":1486,"fn":1487,"ua":1488,"vr":1489,"ms":1490,"dy":1491,"bs":1492,"fc":1493,"jw":1494,"tk":1495,"vs":1496,"bf":1497,"zo":1498,"kq":1499,"hs":1500,"go":1501,"js":1502,"lu":1503,"ys":1504,"zq":1505,"bw":1506,"rm":1507,"tn":1508,"lc":1509,"qx":1510,"yj":1511,"xa":1512,"dr":1513,"ds":1514,"lg":1515,"fg":1516,"yr":1517,"wk":1518,"pk":1519,"vq":1520,"ii":1521,"rt":1522,"ca":1523,"fz":1524,"tf":1525,"hm":1526,"iz":1527,"yb":1528,"yw":1529,"ma":1530,"cx":1531,"jk":1532,"bv":1533,"ug":1534,"je":1535,"mg":1536,"ff":1537,"nf":1538,"12":1539,"nl":1540,"15":1541,"mx":1542,"vk":1543,"bk":1544,"sl":1545,"16":1546,"fq":1547,"cq":1548,"vl":1549,"pf":1550,"vt":1551,"wf":1552,"hl":1553,"jl":1554,"nu":1555,"pc":1556,"25":1557,"ault":1558,"Ġcomplete":1559,"default":1560,"ek":1561,"30":1562,"fu":1563,"hv":1564,"cu":1565,"wg":1566,"50":1567,"wt":1568,"bm":1569,"pm":1570,"fx":1571,"ju":1572,"rf":1573,"jp":1574,"lz":1575,"xo":1576,"qa":1577,"bl":1578,"hp":1579,"rl":1580,"dn":1581,"wm":1582,"jc":1583,"bp":1584,"jv":1585,"bx":1586,"hn":1587,"hk":1588,"jn":1589,"kz":1590,"rc":1591,"wu":1592,"dm":1593,"pq":1594,"df":1595,"yt":1596,"ai":1597,"lx":1598,"eb":1599,"sw":1600,"99":1601,"40":1602,"mu":1603,"Ġ19":1604,"rp":1605,"dk":1606,"qi":1607,"vo":1608,"dw":1609,"dc":1610,"ga":1611,"dt":1612,"hj":1613,"fi":1614,"kc":1615,"ki":1616,"gi":1617,"fl":1618,"nq":1619,"hu":1620,"jg":1621,"va":1622,"mq":1623,"tu":1624,"Ġ18":1625,"uo":1626,"dz":1627,"ep":1628,"mc":1629,"jz":1630,"kg":1631,"pl":1632,"mz":1633,"sg":1634,".,":1635,";).":1636,"oice":1637,"yk":1638,"bn":1639,"rk":1640,"sz":1641,"uz":1642,"su":1643,"cg":1644,"co":1645,"dv":1646,"jf":1647,"ao":1648,"bg":1649,"fo":1650,"hg":1651,"nz":1652,"ym":1653,"yz":1654,"ti":1655,"ci":1656,"kl":1657,"yn":1658,"ef":1659,"wq":1660,"ba":1661,"wv":1662,"pa":1663,"rn":1664,"vc":1665,"pu":1666,"tm":1667,"hq":1668,"sf":1669,"ya":1670,"ka":1671,"li":1672,"yf":1673,"nx":1674,"el":1675,"wx":1676,"ku":1677,"qo":1678,"ee":1679,"sm":1680,">'":1681,"hat":1682,"Ġ...":1683,"Ġ}'.":1684,"(){":1685,"sk":1686,"lq":1687,"sx":1688,"tz":1689,"wp":1690,"tc":1691,"ej":1692,"jm":1693,"ide":1694,"yg":1695,"ver":1696,"jq":1697,"mo":1698,"vz":1699,"Ġ11":1700,"bz":1701,"tg":1702,"mi":1703,"ram":1704,"dg":1705,"pz":1706,"bq":1707,"yo":1708,"bu":1709,"nm":1710,"ro":1711,"rx":1712,"hr":1713,"rq":1714,"eu":1715,"ko":1716,"dl":1717,"rg":1718,"sc":1719,"ji":1720,"vx":1721,"yq":1722,"pg":1723,"Ġthat":1724,"Ġprog":1725,"Ġever":1726,"ovide":1727,"Ġcalls":1728,"Ġimplemented":1729,"Provide":1730,"Ġdefinition":1731,"Ġprogram":1732,"Ġevery":1733,"vm":1734,"pet":1735,"hf":1736,"ja":1737,"ei":1738,"nip":1739,"px":1740,"vu":1741,"kx":1742,"no":1743,"ru":1744,"Ġ13":1745,"ez":1746,"tq":1747,"rz":1748,"da":1749,"wa":1750,"yu":1751,"po":1752,"ri":1753,"Ġ28":1754,"ecl":1755,"ev":1756,"Ġ23":1757,"Ġ24":1758,"yl":1759,"yc":1760,"Ġ17":1761,"bc":1762,"na":1763,"ng":1764,"jx":1765,"pi":1766,"tx":1767,"eg":1768,"so":1769,"Decl":1770,"else":1771,"hz":1772,"urrou":1773,"Ġsnip":1774,"Ġsurrou":1775,"nding":1776,"Ġcontext":1777,"Ġdefined":1778,"Declare":1779,"Ġsnippet":1780,"Ġsurrounding":1781,"hi":1782,"Ġ14":1783,"dq":1784,"hc":1785,"jo":1786,"du":1787,"yi":1788,"wi":1789,"Ġ21":1790,"ea":1791,"ha":1792,"Ġ22":1793,"Ġ26":1794,"vi":1795,"dx":1796,"ni":1797,"ta":1798,"wo":1799,"hx":1800,"wz":1801,"bi":1802,"sa":1803,"all":1804,"ex":1805,"eo":1806,"Ġ27":1807,"wc":1808,"Ġ29":1809,"Sub":1810,"choice":1811,"Ġ37":1812,"Missing":1813,"Ġfall":1814,"uting":1815,"throu":1816,"ecuting":1817,"Ġexecuting":1818,"Ġcause":1819,"through":1820,"sq":1821,"bo":1822,"yx":1823,"Ġ35":1824,"to":1825,"Ġ33":1826,"do":1827,"ho":1828,"Ġ39":1829,"Ġ38":1830,"Ġ31":1831,"eq":1832,"Ġ34":1833,"Ġ36":1834,"di":1835,"Ġ79":1836,"Ġ73":1837,"Ġ83":1838,"Ġ70":1839,"Ġ66":1840,"Ġ95":1841,"Ġ63":1842,"Ġ55":1843,"Ġ96":1844,"Ġ78":1845,"Ġ60":1846,"Ġ82":1847,"Ġ89":1848,"Ġ52":1849,"Ġ71":1850,"Ġ61":1851,"Ġ59":1852,"Ġ74":1853,"Ġ65":1854,"xit":1855,"Ġ57":1856,"Ġ47":1857,"Ġ76":1858,"Ġ67":1859,"Ġ90":1860,"Ġ77":1861,"Ġ62":1862,"Ġ51":1863,"Ġ42":1864,"Ġ45":1865,"Ġ68":1866,"Ġ46":1867,"Ġ81":1868,"Ġ87":1869,"Ġ54":1870,"Ġ80":1871,"Ġ86":1872,"Ġ92":1873,"Ġ98":1874,"Ġ53":1875,"Ġ56":1876,"Ġ94":1877,"Ġ97":1878,"Ġ41":1879,"Ġ72":1880,"Ġ58":1881,"Ġ84":1882,"Ġ48":1883,"Ġ91":1884,"Ġ69":1885,"Ġ93":1886,"Bye":1887,"Exit":1888,"Inv":1889,"Ġchoice":1890,"Ġ75":1891,"Invalid":1892,"Ġ85":1893,"Ġ44":1894,"Ġ49":1895,"Ġ64":1896,"Ġ43":1897,"Ġ88":1898,"xeb":1899,"qjf":1900,"rll":1901,"qvq":1902,"jrb":1903,"sth":1904,"sec":1905,"cko":1906,"atd":1907,"jzb":1908,"yiy":1909,"sem":1910,"ijw":1911,"vqj":1912,"wtr":1913,"ulj":1914,"qay":1915,"fap":1916,"ffh":1917,"lzm":1918,"ofd":1919,"gvr":1920,"cct":1921,"gyh":1922,"oek":1923,"uek":1924,"kvw":1925,"zyc":1926,"fxj":1927,"qds":1928,"tpj":1929,"sxb":1930,"wde":1931,"idf":1932,"wfj":1933,"ygd":1934,"avo":1935,"ohn":1936,"gtc":1937,"agy":1938,"lqu":1939,"upd":1940,"yok":1941,"oyb":1942,"fot":1943,"qjl":1944,"zvi":1945,"ija":1946,"gba":1947,"exs":1948,"xik":1949,"arp":1950,"arq":1951,"zkr":1952,"xax":1953,"fjt":1954,"diw":1955,"kut":1956,"lnh":1957,"xge":1958,"ylb":1959,"obm":1960,"qeu":1961,"gxi":1962,"ien":1963,"kxj":1964,"nzy":1965,"ypq":1966,"ohk":1967,"zpf":1968,"spw":1969,"ioe":1970,"znb":1971,"zpr":1972,"osf":1973,"zrz":1974,"kck":1975,"erd":1976,"adi":1977,"okh":1978,"xwf":1979,"zpv":1980,"lxv":1981,"oql":1982,"ruh":1983,"snb":1984,"vxk":1985,"vmb":1986,"vrd":1987,"ufw":1988,"ufy":1989,"ius":1990,"kzk":1991,"vzh":1992,"isv":1993,"asu":1994,"qsu":1995,"cnh":1996,"hcb":1997,"jct":1998,"kub":1999,"nis":2000,"vuw":2001,"rea":2002,"seu":2003,"ubj":2004,"cjl":2005,"dgv":2006,"ool":2007,"tzj":2008,"odx":2009,"oyq":2010,"qnw":2011,"osx":2012,"vdb":2013,"dzj":2014,"iax":2015,"xru":2016,"cgb":2017,"pzb":2018,"iyc":2019,"zmo":2020,"kyw":2021,"myd":2022,"lwz":2023,"duj":2024,"fxy":2025,"hut":2026,"jaf":2027,"kvy":2028,"wzv":2029,"inl":2030,"tso":2031,"apn":2032,"gno":2033,"ypr":2034,"jbe":2035,"qyj":2036,"xfl":2037,"xfz":2038,"gkt":2039,"xnl":2040,"cno":2041,"gde":2042,"jpb":2043,"nlo":2044,"qqb":2045,"uop":2046,"yze":2047,"gnk":2048,"odt":2049,"kez":2050,"omn":2051,"uhm":2052,"fwc":2053,"dtj":2054,"iuw":2055,"mop":2056,"nnj":2057,"txc":2058,"wwy":2059,"wpj":2060,"ygw":2061,"otu":2062,"zee":2063,"icc":2064,"iam":2065,"ifc":2066,"xpr":2067,"rsq":2068,"ikh":2069,"zwe":2070,"zwf":2071,"gfl":2072,"qlb":2073,"osk":2074,"upy":2075,"qzq":2076,"dyy":2077,"ggb":2078,"oor":2079,"pnj":2080,"qqp":2081,"tfd":2082,"nto":2083,"itd":2084,"irn":2085,"asw":2086,"xpx":2087,"gkd":2088,"ahv":2089,"xyo":2090,"hop":2091,"mts":2092,"nuj":2093,"pob":2094,"qhz":2095,"gff":2096,"mjx":2097,"dxl":2098,"hwj":2099,"jqk":2100,"jnj":2101,"klj":2102,"lon":2103,"lzy":2104,"rzy":2105,"wsy":2106,"ygp":2107,"ctx":2108,"avi":2109,"gki":2110,"znw":2111,"lht":2112,"gta":2113,"fyg":2114,"qmx":2115,"cfk":2116,"bmv":2117,"bsy":2118,"fcw":2119,"mxj":2120,"pfd":2121,"rfv":2122,"yrb":2123,"zcp":2124,"mea":2125,"ayf":2126,"odp":2127,"wlr":2128,"ogv":2129,"ikw":2130,"xro":2131,"qsr":2132,"zsq":2133,"xep":2134,"crz":2135,"iei":2136,"iug":2137,"aak":2138,"bzs":2139,"bwj":2140,"bxs":2141,"dlj":2142,"ozy":2143,"ptb":2144,"rfh":2145,"tgj":2146,"uly":2147,"yop":2148,"chm":2149,"icz":2150,"odg":2151,"ifp":2152,"zyx":2153,"ijm":2154,"xkq":2155,"qtc":2156,"xqo":2157,"elt":2158,"hne":2159,"pak":2160,"vxh":2161,"wog":2162,"yks":2163,"ocz":2164,"qvj":2165,"uhq":2166,"lhl":2167,"gtp":2168,"byy":2169,"dry":2170,"fum":2171,"fpv":2172,"lid":2173,"nwb":2174,"oob":2175,"rxn":2176,"smp":2177,"saj":2178,"vun":2179,"vrb":2180,"vnj":2181,"vsd":2182,"yzy":2183,"yuk":2184,"yeh":2185,"ura":2186,"ara":2187,"ntl":2188,"ntq":2189,"ulb":2190,"ifx":2191,"qjz":2192,"vws":2193,"ijg":2194,"xfm":2195,"zmd":2196,"zdi":2197,"mhk":2198,"cms":2199,"uqx":2200,"zii":2201,"aih":2202,"cuj":2203,"lpt":2204,"zih":2205,"ats":2206,"kef":2207,"wlv":2208,"zjx":2209,"qbt":2210,"gfo":2211,"uhl":2212,"xdl":2213,"zrx":2214,"uew":2215,"cak":2216,"djj":2217,"eqj":2218,"gxp":2219,"hrh":2220,"ixy":2221,"jfh":2222,"kpb":2223,"ncd":2224,"nxt":2225,"pab":2226,"trr":2227,"tuk":2228,"uaj":2229,"voy":2230,"wgy":2231,"rex":2232,"hey":2233,"aro":2234,"ord":2235,"sew":2236,"mpf":2237,"chf":2238,"ivx":2239,"qub":2240,"quw":2241,"gju":2242,"gpn":2243,"zdf":2244,"qsn":2245,"gyz":2246,"lta":2247,"aot":2248,"bur":2249,"bny":2250,"fib":2251,"gme":2252,"hxk":2253,"iqe":2254,"kal":2255,"kqd":2256,"lik":2257,"lxf":2258,"lsy":2259,"nut":2260,"nos":2261,"nnh":2262,"oqk":2263,"oxn":2264,"pid":2265,"qof":2266,"sit":2267,"tny":2268,"uik":2269,"stl":2270,"rrk":2271,"ndm":2272,"itx":2273,"ias":2274,"ild":2275,"ccw":2276,"pdb":2277,"qwk":2278,"qyc":2279,"ohu":2280,"iyv":2281,"xrb":2282,"qsc":2283,"uyt":2284,"gtn":2285,"xei":2286,"dfj":2287,"lxb":2288,"mkf":2289,"pcb":2290,"sck":2291,"xmm":2292,"xgj":2293,"ylw":2294,"ddy":2295,"pez":2296,"iaf":2297,"apl":2298,"axi":2299,"ukj":2300,"oee":2301,"oew":2302,"qrq":2303,"qtq":2304,"zai":2305,"bgn":2306,"bgv":2307,"blh":2308,"dnc":2309,"dpy":2310,"fem":2311,"fnb":2312,"hhw":2313,"iul":2314,"juv":2315,"jhy":2316,"kwj":2317,"klp":2318,"msh":2319,"mfp":2320,"npv":2321,"qqf":2322,"rst":2323,"rgr":2324,"rtb":2325,"tgb":2326,"uzf":2327,"clh":2328,"aln":2329,"sen":2330,"lom":2331,"ung":2332,"irl":2333,"xrh":2334,"qvh":2335,"xcb":2336,"zsj":2337,"fjs":2338,"qty":2339,"ooo":2340,"uua":2341,"aah":2342,"btw":2343,"bsb":2344,"bjj":2345,"cir":2346,"gur":2347,"hil":2348,"haw":2349,"ixb":2350,"jom":2351,"nhe":2352,"pld":2353,"pfh":2354,"sxf":2355,"soj":2356,"uzn":2357,"wth":2358,"yjd":2359,"stt":2360,"lea":2361,"mpr":2362,"unm":2363,"ofu":2364,"ctq":2365,"ivr":2366,"idz":2367,"apq":2368,"axj":2369,"xpn":2370,"qjg":2371,"jbd":2372,"iwq":2373,"xrz":2374,"zfu":2375,"gjm":2376,"glp":2377,"nno":2378,"fck":2379,"lur":2380,"rkh":2381,"rcf":2382,"zke":2383,"zqy":2384,"gnh":2385,"imc":2386,"tru":2387,"qhm":2388,"zwq":2389,"ukd":2390,"qfo":2391,"upw":2392,"xdw":2393,"afo":2394,"axt":2395,"dul":2396,"dxp":2397,"ege":2398,"fov":2399,"gld":2400,"hgk":2401,"jpe":2402,"jgr":2403,"kts":2404,"kgv":2405,"mvw":2406,"qme":2407,"qvg":2408,"svd":2409,"vtj":2410,"wre":2411,"wvb":2412,"xgf":2413,"ioa":2414,"isq":2415,"uml":2416,"mev":2417,"atq":2418,"pej":2419,"idj":2420,"vwt":2421,"xbw":2422,"uky":2423,"zdt":2424,"ztu":2425,"zty":2426,"xca":2427,"abe":2428,"oex":2429,"mdu":2430,"cvb":2431,"cve":2432,"guz":2433,"agb":2434,"awy":2435,"bwy":2436,"bcy":2437,"cnj":2438,"eah":2439,"ejy":2440,"fkd":2441,"flm":2442,"gae":2443,"hzv":2444,"ies":2445,"jly":2446,"kcl":2447,"mzj":2448,"mss":2449,"nie":2450,"pth":2451,"pgk":2452,"pzd":2453,"pud":2454,"qas":2455,"rwj":2456,"uge":2457,"vge":2458,"vts":2459,"vip":2460,"wts":2461,"wol":2462,"ygy":2463,"stf":2464,"loi":2465,"ntz":2466,"ufg":2467,"ivp":2468,"ifd":2469,"ypp":2470,"avf":2471,"pdm":2472,"usy":2473,"iwd":2474,"ijf":2475,"zbk":2476,"iys":2477,"xfo":2478,"xrm":2479,"zfg":2480,"gyo":2481,"gwe":2482,"vht":2483,"gmr":2484,"nej":2485,"xxg":2486,"cqv":2487,"jft":2488,"lck":2489,"mih":2490,"pqp":2491,"rck":2492,"tuv":2493,"tfh":2494,"vur":2495,"wwl":2496,"ymb":2497,"inn":2498,"ita":2499,"uln":2500,"oco":2501,"knm":2502,"qno":2503,"gvn":2504,"upu":2505,"qrg":2506,"zao":2507,"bof":2508,"blb":2509,"fob":2510,"fuy":2511,"fuw":2512,"gmm":2513,"ixh":2514,"juh":2515,"jlb":2516,"kkh":2517,"nkh":2518,"plw":2519,"rpj":2520,"rpp":2521,"spv":2522,"tnj":2523,"vvb":2524,"wqh":2525,"wcb":2526,"wcs":2527,"xqh":2528,"yob":2529,"zqu":2530,"zzj":2531,"stq":2532,"rra":2533,"zet":2534,"apx":2535,"axs":2536,"ilk":2537,"ifw":2538,"wla":2539,"gjd":2540,"gjj":2541,"uvu":2542,"ztm":2543,"zrq":2544,"cjp":2545,"gxg":2546,"ksx":2547,"47":2548,"55":2549,"eqb":2550,"kis":2551,"kct":2552,"kft":2553,"kny":2554,"mak":2555,"mij":2556,"rgb":2557,"sxp":2558,"szl":2559,"ued":2560,"uip":2561,"vle":2562,"wmh":2563,"xow":2564,"xsh":2565,"yse":2566,"yrs":2567,"zxh":2568,"zcr":2569,"umv":2570,"ibg":2571,"adg":2572,"siq":2573,"avt":2574,"qjj":2575,"qwe":2576,"jbq":2577,"zyb":2578,"zvp":2579,"qyq":2580,"zdo":2581,"ztj":2582,"qlf":2583,"qlh":2584,"qco":2585,"xdz":2586,"xlp":2587,"prp":2588,"iui":2589,"rvn":2590,"dcs":2591,"eil":2592,"ezj":2593,"fnd":2594,"fzw":2595,"jgp":2596,"jkb":2597,"lut":2598,"mzw":2599,"rzh":2600,"uoy":2601,"wab":2602,"xny":2603,"xzk":2604,"zis":2605,"zot":2606,"reo":2607,"mej":2608,"owj":2609,"ask":2610,"iym":2611,"obn":2612,"zsy":2613,"kyh":2614,"lmz":2615,"kvo":2616,"agf":2617,"afy":2618,"aaw":2619,"bot":2620,"bxt":2621,"bcc":2622,"bqd":2623,"bgs":2624,"bkb":2625,"duv":2626,"evj":2627,"ehb":2628,"gqw":2629,"hsh":2630,"hxv":2631,"lly":2632,"mot":2633,"mge":2634,"nge":2635,"ngb":2636,"oot":2637,"oav":2638,"ozl":2639,"pqc":2640,"pfw":2641,"pfy":2642,"sxh":2643,"skm":2644,"txb":2645,"vqd":2646,"vlj":2647,"wum":2648,"yaj":2649,"yxy":2650,"dee":2651,"arg":2652,"rax":2653,"ddi":2654,"ulf":2655,"ibc":2656,"idp":2657,"sim":2658,"odj":2659,"fai":2660,"ovq":2661,"imq":2662,"ypo":2663,"zjs":2664,"xri":2665,"xwe":2666,"xcm":2667,"upf":2668,"oea":2669,"fwu":2670,"ueo":2671,"glj":2672,"kdk":2673,"krc":2674,"krz":2675,"iuu":2676,"fmu":2677,"44":2678,"brr":2679,"bic":2680,"bfv":2681,"cqd":2682,"dub":2683,"dgk":2684,"djd":2685,"eot":2686,"eqk":2687,"fnc":2688,"fqw":2689,"fmj":2690,"fgm":2691,"fnw":2692,"goy":2693,"gzt":2694,"jcl":2695,"jzk":2696,"jkt":2697,"kob":2698,"lnj":2699,"lkd":2700,"msy":2701,"niw":2702,"nmv":2703,"nlt":2704,"prs":2705,"pnv":2706,"qgb":2707,"rat":2708,"sgh":2709,"tvd":2710,"tvj":2711,"tkp":2712,"uqv":2713,"vnc":2714,"vzw":2715,"wub":2716,"wkh":2717,"wtj":2718,"xor":2719,"xap":2720,"xim":2721,"yut":2722,"yiw":2723,"ykj":2724,"zol":2725,"ztw":2726,"inz":2727,"hev":2728,"loq":2729,"nti":2730,"ndx":2731,"chi":2732,"chk":2733,"chz":2734,"adr":2735,"icv":2736,"aye":2737,"iaa":2738,"iag":2739,"siz":2740,"ifh":2741,"llm":2742,"ipc":2743,"zbp":2744,"iyg":2745,"ujn":2746,"obp":2747,"xwi":2748,"gfm":2749,"zmc":2750,"zmr":2751,"ojm":2752,"qlu":2753,"gtt":2754,"xsu":2755,"awg":2756,"afn":2757,"gxa":2758,"igc":2759,"lpn":2760,"qqx":2761,"bcb":2762,"cip":2763,"dmm":2764,"gxk":2765,"gxf":2766,"rip":2767,"rtj":2768,"sly":2769,"tat":2770,"tnn":2771,"uam":2772,"vvj":2773,"yav":2774,"zvg":2775,"alc":2776,"eso":2777,"meg":2778,"iap":2779,"tww":2780,"faw":2781,"cby":2782,"zri":2783,"guq":2784,"ago":2785,"bom":2786,"bqv":2787,"baj":2788,"brd":2789,"dmy":2790,"eqt":2791,"ejj":2792,"ejh":2793,"egq":2794,"ffv":2795,"ffy":2796,"haf":2797,"jak":2798,"jvd":2799,"koc":2800,"nmt":2801,"pke":2802,"qtw":2803,"qok":2804,"sfb":2805,"tgy":2806,"tmh":2807,"vxy":2808,"vey":2809,"wrd":2810,"xqk":2811,"yte":2812,"yfv":2813,"ywy":2814,"yqt":2815,"ytb":2816,"zgv":2817,"alu":2818,"unj":2819,"anv":2820,"opp":2821,"ibl":2822,"ady":2823,"xte":2824,"gnl":2825,"ilj":2826,"imy":2827,"qjo":2828,"zfy":2829,"gpl":2830,"zmv":2831,"znv":2832,"ztq":2833,"qpl":2834,"mba":2835,"qrl":2836,"ueh":2837,"vhf":2838,"ozc":2839,"uqo":2840,"lpl":2841,"ixg":2842,"gzo":2843,"38":2844,"aen":2845,"aay":2846,"bct":2847,"btr":2848,"bcs":2849,"bfs":2850,"cum":2851,"cfh":2852,"dxt":2853,"dak":2854,"dmv":2855,"dtp":2856,"eat":2857,"eut":2858,"eth":2859,"ezh":2860,"fgj":2861,"fkh":2862,"hcs":2863,"iuh":2864,"ixl":2865,"jrw":2866,"kof":2867,"kpd":2868,"kfd":2869,"klb":2870,"kvd":2871,"mct":2872,"myp":2873,"mxb":2874,"mah":2875,"mcp":2876,"nfw":2877,"oab":2878,"qzy":2879,"rre":2880,"riy":2881,"rik":2882,"tif":2883,"vue":2884,"wih":2885,"xxy":2886,"yny":2887,"yet":2888,"yss":2889,"zwl":2890,"onr":2891,"ntc":2892,"idu":2893,"ftv":2894,"kek":2895,"omi":2896,"vwj":2897,"qbp":2898,"zhn":2899,"zvy":2900,"qyz":2901,"ohg":2902,"iyo":2903,"xwd":2904,"xwr":2905,"xwt":2906,"gjx":2907,"xvi":2908,"zmt":2909,"gvt":2910,"gdm":2911,"gdr":2912,"qfy":2913,"qlj":2914,"xcg":2915,"xco":2916,"xcy":2917,"fvx":2918,"wyt":2919,"xsr":2920,"kbd":2921,"gwv":2922,"mwm":2923,"mwo":2924,"nhw":2925,"kyz":2926,"ltc":2927,"ixi":2928,"zcq":2929,"lfc":2930,"agc":2931,"xii":2932,"bou":2933,"bvj":2934,"cmy":2935,"eis":2936,"fen":2937,"hpw":2938,"jtb":2939,"kqv":2940,"lnt":2941,"mce":2942,"nww":2943,"qzm":2944,"rnw":2945,"uuj":2946,"vim":2947,"yog":2948,"stp":2949,"itj":2950,"shn":2951,"usp":2952,"ogu":2953,"qwu":2954,"qyg":2955,"xrj":2956,"xvj":2957,"qvi":2958,"xmr":2959,"xey":2960,"kyu":2961,"kqo":2962,"buj":2963,"cob":2964,"dzh":2965,"dxk":2966,"dxv":2967,"dgr":2968,"ect":2969,"exf":2970,"ezs":2971,"gqn":2972,"gcs":2973,"hny":2974,"hps":2975,"hmd":2976,"hpv":2977,"jcp":2978,"jwb":2979,"koj":2980,"lvg":2981,"nqh":2982,"nkd":2983,"ose":2984,"och":2985,"ozr":2986,"ply":2987,"ppb":2988,"sqv":2989,"ujb":2990,"vny":2991,"vps":2992,"vph":2993,"wzb":2994,"xip":2995,"yak":2996,"yld":2997,"zle":2998,"zdd":2999,"reg":3000,"stj":3001,"deo":3002,"alp":3003,"zeq":3004,"unu":3005,"ckf":3006,"ddz":3007,"tsk":3008,"ivh":3009,"owh":3010,"idn":3011,"ayw":3012,"utw":3013,"odi":3014,"quv":3015,"shs":3016,"usn":3017,"ogo":3018,"vwu":3019,"ghr":3020,"zkd":3021,"qbl":3022,"ujm":3023,"uvt":3024,"ahb":3025,"zpi":3026,"upv":3027,"lhj":3028,"mhl":3029,"zlu":3030,"aev":3031,"myq":3032,"kmg":3033,"qzc":3034,"vvc":3035,"lrq":3036,"xzz":3037,"aaa":3038,"fef":3039,"42":3040,"bnc":3041,"bzf":3042,"bgp":3043,"dir":3044,"dne":3045,"eow":3046,"ewy":3047,"ekj":3048,"fns":3049,"fgf":3050,"ffb":3051,"guf":3052,"grs":3053,"gzd":3054,"gzr":3055,"hoh":3056,"izk":3057,"jde":3058,"jib":3059,"jim":3060,"jqf":3061,"jmh":3062,"krb":3063,"mcl":3064,"mwj":3065,"mkw":3066,"nem":3067,"ney":3068,"nfr":3069,"qor":3070,"rce":3071,"rqb":3072,"rgd":3073,"rxy":3074,"sio":3075,"smv":3076,"soz":3077,"tfa":3078,"ttj":3079,"vij":3080,"vlw":3081,"wcl":3082,"wns":3083,"wqk":3084,"xzj":3085,"xqw":3086,"yur":3087,"yir":3088,"yxt":3089,"ycj":3090,"yvb":3091,"zge":3092,"zoh":3093,"zqd":3094,"zuh":3095,"zcm":3096,"iny":3097,"alb":3098,"zea":3099,"zec":3100,"anw":3101,"ofv":3102,"ctf":3103,"ulp":3104,"chj":3105,"cho":3106,"tsv":3107,"emy":3108,"icy":3109,"vgf":3110,"olf":3111,"ocw":3112,"odf":3113,"ifs":3114,"ypb":3115,"ghb":3116,"qbo":3117,"qwr":3118,"zbi":3119,"zfq":3120,"gpt":3121,"znp":3122,"uyd":3123,"uyk":3124,"qfp":3125,"qlc":3126,"xcp":3127,"qpc":3128,"fjq":3129,"qcm":3130,"qri":3131,"fwg":3132,"aeu":3133,"gwm":3134,"cys":3135,"rhn":3136,"cnl":3137,"pyw":3138,"fsm":3139,"xzq":3140,"fpm":3141,"uco":3142,"fko":3143,"azx":3144,"uxo":3145,"zqo":3146,"aan":3147,"bsd":3148,"eew":3149,"fny":3150,"fpb":3151,"hvb":3152,"htj":3153,"kzn":3154,"ngn":3155,"oem":3156,"oax":3157,"pop":3158,"pad":3159,"qos":3160,"rts":3161,"rqy":3162,"rgg":3163,"vnv":3164,"wsb":3165,"xhe":3166,"arl":3167,"leg":3168,"ntn":3169,"ntx":3170,"ibb":3171,"vgu":3172,"odc":3173,"okw":3174,"qjh":3175,"ijx":3176,"xmq":3177,"xhx":3178,"xez":3179,"kjw":3180,"aek":3181,"qma":3182,"qml":3183,"ktv":3184,"vsg":3185,"azh":3186,"acv":3187,"bil":3188,"bce":3189,"bne":3190,"cmm":3191,"dis":3192,"dmp":3193,"dof":3194,"dtb":3195,"egv":3196,"efd":3197,"fat":3198,"fft":3199,"fry":3200,"gat":3201,"gmh":3202,"jes":3203,"kit":3204,"ltw":3205,"mrb":3206,"nll":3207,"pos":3208,"rns":3209,"rxj":3210,"rzs":3211,"rfw":3212,"rne":3213,"sov":3214,"sah":3215,"tcc":3216,"tfj":3217,"vuy":3218,"vpv":3219,"vss":3220,"wxj":3221,"xoc":3222,"xgn":3223,"xxe":3224,"yfp":3225,"yjy":3226,"zcn":3227,"der":3228,"ouz":3229,"uma":3230,"mpd":3231,"unv":3232,"opm":3233,"ddl":3234,"pef":3235,"icg":3236,"fti":3237,"cdz":3238,"odl":3239,"wll":3240,"qba":3241,"qwi":3242,"jbi":3243,"ohq":3244,"ujw":3245,"obd":3246,"qhb":3247,"uku":3248,"gvc":3249,"zdk":3250,"qsy":3251,"gdy":3252,"lhw":3253,"xeu":3254,"udy":3255,"cvc":3256,"xlb":3257,"gri":3258,"glf":3259,"aez":3260,"ief":3261,"afe":3262,"qmc":3263,"ltn":3264,"qzx":3265,"ooi":3266,"fku":3267,"zcu":3268,"64":3269,"78":3270,"97":3271,"azp":3272,"bnj":3273,"bcw":3274,"cio":3275,"cxk":3276,"cqn":3277,"doy":3278,"dvd":3279,"dhy":3280,"egh":3281,"ezw":3282,"efy":3283,"evp":3284,"few":3285,"hst":3286,"how":3287,"hfv":3288,"hnb":3289,"ihe":3290,"igy":3291,"juf":3292,"jns":3293,"jps":3294,"jcs":3295,"jrh":3296,"jkr":3297,"jey":3298,"kor":3299,"kqt":3300,"kvb":3301,"luw":3302,"lcb":3303,"mgn":3304,"nlj":3305,"nlb":3306,"oib":3307,"piv":3308,"pxf":3309,"plj":3310,"qmp":3311,"qut":3312,"qol":3313,"qoy":3314,"qxb":3315,"qrb":3316,"rxb":3317,"rmj":3318,"sst":3319,"sxd":3320,"sfd":3321,"sph":3322,"top":3323,"tcd":3324,"toj":3325,"uax":3326,"uzh":3327,"vpb":3328,"whe":3329,"wrj":3330,"yed":3331,"yec":3332,"yqb":3333,"ytj":3334,"zoy":3335,"zgb":3336,"rew":3337,"dec":3338,"clg":3339,"ntp":3340,"anx":3341,"ctg":3342,"rah":3343,"uld":3344,"ibn":3345,"adh":3346,"adv":3347,"enw":3348,"ccb":3349,"ccs":3350,"zjy":3351,"zkrr":3352,"qwm":3353,"laz":3354,"iwe":3355,"zbg":3356,"zbz":3357,"gpu":3358,"xmb":3359,"qlk":3360,"uwj":3361,"qee":3362,"qek":3363,"qcq":3364,"qcr":3365,"wjy":3366,"qrh":3367,"cro":3368,"awx":3369,"uei":3370,"xnp":3371,"gwx":3372,"rhh":3373,"cnm":3374,"iuo":3375,"iuq":3376,"fsc":3377,"lsz":3378,"aai":3379,"xqa":3380,"zzo":3381,"kqi":3382,"amw":3383,"bck":3384,"cmv":3385,"cmd":3386,"dlh":3387,"elo":3388,"epv":3389,"fmm":3390,"gze":3391,"hkn":3392,"jfb":3393,"jph":3394,"jvj":3395,"kde":3396,"kuw":3397,"kph":3398,"nfh":3399,"qxw":3400,"qab":3401,"rnj":3402,"rpy":3403,"rkf":3404,"sra":3405,"tkd":3406,"xol":3407,"yvg":3408,"yth":3409,"ytd":3410,"anb":3411,"shx":3412,"vwv":3413,"ohf":3414,"iyw":3415,"qkd":3416,"ukf":3417,"xdt":3418,"mdn":3419,"mdo":3420,"crc":3421,"acp":3422,"aie":3423,"bor":3424,"bly":3425,"byd":3426,"cov":3427,"dts":3428,"dsh":3429,"etr":3430,"ebw":3431,"hvy":3432,"iqd":3433,"jit":3434,"jsy":3435,"jgta":3436,"kse":3437,"kps":3438,"kzy":3439,"kmb":3440,"kvh":3441,"mry":3442,"nld":3443,"oow":3444,"pnc":3445,"pzs":3446,"pqe":3447,"plb":3448,"qio":3449,"sxk":3450,"smt":3451,"snp":3452,"usi":3453,"vqh":3454,"vah":3455,"wce":3456,"xcl":3457,"xck":3458,"ino":3459,"reb":3460,"dey":3461,"hes":3462,"hex":3463,"ulk":3464,"olr":3465,"ocf":3466,"thj":3467,"tet":3468,"ccn":3469,"qbsl":3470,"zve":3471,"zvz":3472,"iyl":3473,"qhy":3474,"xrk":3475,"qky":3476,"gfw":3477,"gpr":3478,"zpt":3479,"zpy":3480,"ihf":3481,"qcx":3482,"oef":3483,"zlv":3484,"zrd":3485,"cjh":3486,"cjw":3487,"mtq":3488,"cfg":3489,"prc":3490,"igg":3491,"igq":3492,"mro":3493,"ixo":3494,"fco":3495,"75":3496,"76":3497,"93":3498,"acl":3499,"aav":3500,"bze":3501,"ben":3502,"bim":3503,"bmm":3504,"bnv":3505,"bfd":3506,"brj":3507,"btp":3508,"cfd":3509,"dog":3510,"dfd":3511,"dtv":3512,"dvt":3513,"fis":3514,"fps":3515,"fzh":3516,"fmb":3517,"fmw":3518,"gvg":3519,"gap":3520,"gps":3521,"ggd":3522,"gie":3523,"hde":3524,"hpe":3525,"hgn":3526,"hzy":3527,"hlb":3528,"hkr":3529,"iqh":3530,"izd":3531,"igr":3532,"jpv":3533,"jlm":3534,"kgy":3535,"kgr":3536,"kcr":3537,"kvj":3538,"ler":3539,"lav":3540,"liw":3541,"lqe":3542,"lsd":3543,"lcz":3544,"mkj":3545,"oed":3546,"qge":3547,"qik":3548,"ric":3549,"rft":3550,"ruk":3551,"rfy":3552,"rpw":3553,"rvy":3554,"szj":3555,"swd":3556,"tck":3557,"tns":3558,"txf":3559,"tmv":3560,"tfs":3561,"ule":3562,"uij":3563,"ugd":3564,"ucv":3565,"vtw":3566,"vog":3567,"vpt":3568,"vsr":3569,"wed":3570,"wkp":3571,"xxb":3572,"yoy":3573,"ygb":3574,"ycp":3575,"ybh":3576,"zaw":3577,"clt":3578,"aru":3579,"seg":3580,"isw":3581,"umd":3582,"ump":3583,"ndg":3584,"ndt":3585,"atc":3586,"ddj":3587,"ulu":3588,"apu":3589,"ola":3590,"cdn":3591,"nca":3592,"qud":3593,"quj":3594,"ifq":3595,"ypc":3596,"xpt":3597,"cea":3598,"ccx":3599,"usc":3600,"knv":3601,"zvd":3602,"zbo":3603,"iky":3604,"zwb":3605,"xrq":3606,"zfs":3607,"xwp":3608,"mmx":3609,"gkl":3610,"gpw":3611,"zmu":3612,"ojk":3613,"ojv":3614,"gvl":3615,"uvb":3616,"xmk":3617,"xmo":3618,"ihg":3619,"ihz":3620,"xcn":3621,"upa":3622,"mbl":3623,"xsf":3624,"gsq":3625,"qtl":3626,"fyx":3627,"xlu":3628,"grc":3629,"awh":3630,"xna":3631,"glv":3632,"aex":3633,"gmc":3634,"gmg":3635,"sbn":3636,"ozo":3637,"rjj":3638,"guo":3639,"lvl":3640,"uux":3641,"xuz":3642,"zui":3643,"djxq":3644,"acg":3645,"brb":3646,"dqw":3647,"ezk":3648,"fct":3649,"gcb":3650,"hof":3651,"hpy":3652,"jqw":3653,"kcy":3654,"kkw":3655,"ruf":3656,"rny":3657,"rnh":3658,"tum":3659,"wpd":3660,"xmp":3661,"zxw":3662,"orf":3663,"sep":3664,"ilg":3665,"ilm":3666,"aso":3667,"wlp":3668,"ikt":3669,"gjs":3670,"xhz":3671,"upb":3672,"udx":3673,"xzg":3674,"lvk":3675,"xgo":3676,"azu":3677,"lco":3678,"aas":3679,"afb":3680,"cer":3681,"dzk":3682,"eou":3683,"eas":3684,"fqu":3685,"fpj":3686,"gll":3687,"ggy":3688,"hqd":3689,"hkj":3690,"iqn":3691,"jpp":3692,"krs":3693,"lle":3694,"lxt":3695,"lqd":3696,"nov":3697,"nfj":3698,"nnv":3699,"oop":3700,"ooh":3701,"pap":3702,"pub":3703,"puj":3704,"qld":3705,"qoh":3706,"rct":3707,"rxt":3708,"rzw":3709,"rlw":3710,"rwd":3711,"tem":3712,"tup":3713,"tvy":3714,"uts":3715,"uxy":3716,"vrr":3717,"vvh":3718,"wnv":3719,"wfy":3720,"wpv":3721,"wry":3722,"wtp":3723,"xnv":3724,"xud":3725,"yrv":3726,"zzr":3727,"cli":3728,"mps":3729,"ndj":3730,"ndq":3731,"anq":3732,"irt":3733,"ivm":3734,"xtq":3735,"gnr":3736,"okc":3737,"ogp":3738,"ghc":3739,"eti":3740,"zbw":3741,"zwo":3742,"xrn":3743,"gje":3744,"gjg":3745,"gkr":3746,"gks":3747,"qnq":3748,"xha":3749,"qln":3750,"xcu":3751,"xcv":3752,"xcw":3753,"abb":3754,"upr":3755,"upt":3756,"gtl":3757,"xej":3758,"xsl":3759,"gsz":3760,"udw":3761,"grq":3762,"xnz":3763,"pjw":3764,"krw":3765,"prm":3766,"czi":3767,"mru":3768,"azz":3769,"lkz":3770,"13":3771,"14":3772,"22":3773,"51":3774,"62":3775,"70":3776,"87":3777,"aun":3778,"aof":3779,"afh":3780,"bon":3781,"bhb":3782,"btt":3783,"cou":3784,"cnv":3785,"don":3786,"dwj":3787,"dlb":3788,"dvr":3789,"eld":3790,"euj":3791,"exm":3792,"eph":3793,"fhe":3794,"fes":3795,"fos":3796,"gwy":3797,"hun":3798,"hxb":3799,"hkd":3800,"hvh":3801,"htb":3802,"iir":3803,"izh":3804,"jwy":3805,"jkh":3806,"jws":3807,"ken":3808,"kll":3809,"lqj":3810,"lgj":3811,"lfj":3812,"ltb":3813,"mme":3814,"mnn":3815,"nof":3816,"nmj":3817,"oze":3818,"pxb":3819,"pcs":3820,"pnb":3821,"pry":3822,"qfa":3823,"rio":3824,"rar":3825,"rge":3826,"rtr":3827,"rvj":3828,"sad":3829,"sgy":3830,"sjj":3831,"tgh":3832,"udd":3833,"uqy":3834,"uzw":3835,"vir":3836,"vxv":3837,"wow":3838,"wps":3839,"wzd":3840,"wpw":3841,"wnb":3842,"xst":3843,"xke":3844,"yow":3845,"ykb":3846,"zid":3847,"ind":3848,"inv":3849,"sto":3850,"esk":3851,"esy":3852,"ouv":3853,"ckb":3854,"atn":3855,"ufn":3856,"ufv":3857,"chq":3858,"adq":3859,"ayi":3860,"ftq":3861,"odk":3862,"odw":3863,"fab":3864,"faz":3865,"axc":3866,"qjb":3867,"knx":3868,"zyv":3869,"ohv":3870,"iyk":3871,"obj":3872,"qsq":3873,"zne":3874,"znm":3875,"zpc":3876,"qfz":3877,"upg":3878,"qcp":3879,"xdi":3880,"xdu":3881,"oel":3882,"zlf":3883,"qrc":3884,"qrd":3885,"fyk":3886,"xnq":3887,"aeg":3888,"myy":3889,"cfl":3890,"kmu":3891,"vvo":3892,"lrz":3893,"nnq":3894,"lsc":3895,"xza":3896,"aac":3897,"uqa":3898,"ehh":3899,"ucq":3900,"zux":3901,"mlx":3902,"mna":3903,"uga":3904,"hvon":3905,"yiyo":3906,"vqjp":3907,"klpa":3908,"bij":3909,"bwh":3910,"civ":3911,"eqd":3912,"elm":3913,"fls":3914,"ggh":3915,"hob":3916,"hmm":3917,"ixj":3918,"jiw":3919,"kgl":3920,"puh":3921,"qqd":3922,"rxh":3923,"rwb":3924,"sab":3925,"tos":3926,"yqy":3927,"yww":3928,"ynw":3929,"arc":3930,"zez":3931,"ayr":3932,"apf":3933,"uss":3934,"vwd":3935,"zjf":3936,"qbq":3937,"jbv":3938,"qkl":3939,"qvo":3940,"osb":3941,"qcz":3942,"qtk":3943,"iew":3944,"ams":3945,"iuz":3946,"igo":3947,"uii":3948,"aop":3949,"aec":3950,"aub":3951,"bxj":3952,"bjd":3953,"bwe":3954,"dkn":3955,"dtr":3956,"dqb":3957,"dah":3958,"dgs":3959,"dcw":3960,"dpj":3961,"dnw":3962,"exp":3963,"gzy":3964,"hok":3965,"hif":3966,"hmb":3967,"hud":3968,"hph":3969,"hkp":3970,"hjk":3971,"jrj":3972,"jvv":3973,"jyy":3974,"kah":3975,"kzp":3976,"lts":3977,"lim":3978,"lkf":3979,"mon":3980,"mzt":3981,"nnc":3982,"naj":3983,"ngd":3984,"pme":3985,"ppv":3986,"qah":3987,"rqv":3988,"skj":3989,"tot":3990,"tfb":3991,"tnb":3992,"tnw":3993,"uon":3994,"uif":3995,"uus":3996,"vio":3997,"vcb":3998,"vfp":3999,"wor":4000,"wlo":4001,"wos":4002,"wxs":4003,"whb":4004,"xce":4005,"xxeb":4006,"ymj":4007,"yey":4008,"zib":4009,"ziw":4010,"zuj":4011,"ioi":4012,"loz":4013,"umn":4014,"gej":4015,"atm":4016,"ddv":4017,"chg":4018,"chu":4019,"ics":4020,"enl":4021,"olv":4022,"cdk":4023,"edz":4024,"okl":4025,"qux":4026,"ifz":4027,"ypg":4028,"wlg":4029,"wlx":4030,"usz":4031,"omk":4032,"ipa":4033,"jba":4034,"zvr":4035,"zvs":4036,"xbg":4037,"gkh":4038,"ojc":4039,"gvi":4040,"qsw":4041,"xmz":4042,"ztx":4043,"qfx":4044,"qpa":4045,"lhc":4046,"gtd":4047,"gtq":4048,"cpc":4049,"grw":4050,"iea":4051,"aml":4052,"gmx":4053,"qmf":4054,"cfn":4055,"krx":4056,"cmx":4057,"vvn":4058,"czo":4059,"tlg":4060,"xui":4061,"azg":4062,"lkc":4063,"17":4064,"21":4065,"29":4066,"33":4067,"34":4068,"41":4069,"46":4070,"48":4071,"49":4072,"52":4073,"57":4074,"83":4075,"90":4076,"91":4077,"aoh":4078,"bth":4079,"bub":4080,"buh":4081,"bmb":4082,"blj":4083,"caj":4084,"crb":4085,"cwy":4086,"cfb":4087,"dly":4088,"dkh":4089,"dwd":4090,"dln":4091,"ece":4092,"eec":4093,"egb":4094,"efb":4095,"ejr":4096,"fim":4097,"fqh":4098,"fmh":4099,"fkb":4100,"fkw":4101,"gcl":4102,"gtw":4103,"gmd":4104,"gxl":4105,"hke":4106,"hsy":4107,"hrw":4108,"iet":4109,"jll":4110,"jxj":4111,"jzm":4112,"jfv":4113,"jnb":4114,"joo":4115,"kow":4116,"lgb":4117,"lcv":4118,"may":4119,"mkn":4120,"mkh":4121,"mkv":4122,"nqw":4123,"nfv":4124,"oaw":4125,"pst":4126,"pxp":4127,"pxj":4128,"pxw":4129,"paj":4130,"puy":4131,"pkf":4132,"pqz":4133,"qal":4134,"qqv":4135,"qmj":4136,"qgl":4137,"qgtc":4138,"rfa":4139,"rgj":4140,"ruw":4141,"rvb":4142,"rkm":4143,"sme":4144,"sft":4145,"scs":4146,"ttb":4147,"ups":4148,"vhe":4149,"vop":4150,"vke":4151,"vqf":4152,"vvy":4153,"vkt":4154,"vkp":4155,"wqv":4156,"wcw":4157,"wtv":4158,"xou":4159,"xav":4160,"xxp":4161,"xzh":4162,"xgy":4163,"yot":4164,"yme":4165,"zde":4166,"urw":4167,"arh":4168,"alf":4169,"alq":4170,"lok":4171,"rrd":4172,"mpc":4173,"zey":4174,"uns":4175,"ndw":4176,"ckp":4177,"meq":4178,"irw":4179,"ddr":4180,"ddw":4181,"chx":4182,"ivn":4183,"ivu":4184,"emc":4185,"emr":4186,"peg":4187,"ftt":4188,"apg":4189,"gnj":4190,"akp":4191,"akx":4192,"wlt":4193,"shc":4194,"pdo":4195,"qjp":4196,"qjs":4197,"vwf":4198,"qbb":4199,"jbiy":4200,"zvt":4201,"zbq":4202,"ikb":4203,"ajz":4204,"ajau":4205,"gfk":4206,"gpp":4207,"ojs":4208,"ahd":4209,"zdu":4210,"zpn":4211,"xcs":4212,"upc":4213,"qeo":4214,"gtz":4215,"mhy":4216,"fvt":4217,"xeq":4218,"gsj":4219,"gso":4220,"gsw":4221,"zln":4222,"qti":4223,"xlm":4224,"iep":4225,"cjx":4226,"pwwo":4227,"gmf":4228,"gmz":4229,"cmr":4230,"gxu":4231,"fsx":4232,"lvn":4233,"czx":4234,"uui":4235,"aqi":4236,"kkc":4237,"mkla":4238,"uao":4239,"cxo":4240,"szoa":4241,"wqet":4242,"kuta":4243,"spwt":4244,"mypi":4245,"ebh":4246,"grb":4247,"ked":4248,"lvj":4249,"lks":4250,"mxv":4251,"nrd":4252,"prb":4253,"rwy":4254,"rcr":4255,"sqe":4256,"scn":4257,"uzt":4258,"vsi":4259,"vom":4260,"vrw":4261,"xut":4262,"xgb":4263,"rel":4264,"ark":4265,"ane":4266,"lya":4267,"raf":4268,"ddg":4269,"ivl":4270,"ayl":4271,"keg":4272,"rsl":4273,"zbc":4274,"xvc":4275,"xcj":4276,"qcj":4277,"xdn":4278,"udk":4279,"mdr":4280,"rdan":4281,"frq":4282,"lgi":4283,"aax":4284,"aom":4285,"azw":4286,"auv":4287,"btj":4288,"bpj":4289,"dcj":4290,"eay":4291,"fkm":4292,"gad":4293,"hor":4294,"ime":4295,"jle":4296,"jxk":4297,"jmw":4298,"kth":4299,"kfj":4300,"kfv":4301,"kcp":4302,"kmt":4303,"lxk":4304,"lxh":4305,"lxy":4306,"oxqo":4307,"pow":4308,"pmt":4309,"qat":4310,"qte":4311,"ran":4312,"rqk":4313,"rmv":4314,"rcv":4315,"rfd":4316,"rcw":4317,"sor":4318,"scr":4319,"swb":4320,"smr":4321,"tmp":4322,"tov":4323,"tfy":4324,"tpt":4325,"uun":4326,"wmy":4327,"wrh":4328,"wvn":4329,"xem":4330,"ycl":4331,"yat":4332,"yzj":4333,"yuv":4334,"ynj":4335,"ycn":4336,"yhb":4337,"zuy":4338,"rem":4339,"ioz":4340,"ari":4341,"cke":4342,"oww":4343,"adf":4344,"adn":4345,"iab":4346,"ocx":4347,"ovt":4348,"quc":4349,"que":4350,"imf":4351,"avu":4352,"pdk":4353,"jbw":4354,"obg":4355,"xrl":4356,"zfb":4357,"gdo":4358,"rbff":4359,"xcq":4360,"zsa":4361,"xdm":4362,"oeu":4363,"qtb":4364,"grk":4365,"uez":4366,"aew":4367,"kyc":4368,"amf":4369,"cfx":4370,"prx":4371,"ozu":4372,"qgi":4373,"uug":4374,"zcg":4375,"mfu":4376,"wrq":4377,"driv":4378,"23":4379,"28":4380,"45":4381,"54":4382,"58":4383,"66":4384,"67":4385,"77":4386,"79":4387,"89":4388,"act":4389,"azy":4390,"aapq":4391,"bnt":4392,"bcd":4393,"bps":4394,"bfy":4395,"bmt":4396,"bkf":4397,"bsp":4398,"cge":4399,"cuf":4400,"cra":4401,"cem":4402,"cid":4403,"cim":4404,"cxw":4405,"cqr":4406,"dav":4407,"drs":4408,"dxf":4409,"dgy":4410,"dcb":4411,"dkd":4412,"dcn":4413,"dsb":4414,"drj":4415,"dyd":4416,"drw":4417,"ent":4418,"eub":4419,"epb":4420,"epr":4421,"ebe":4422,"eje":4423,"fke":4424,"ggw":4425,"gypr":4426,"hum":4427,"hgd":4428,"hlt":4429,"hsd":4430,"hkt":4431,"hhy":4432,"izv":4433,"jed":4434,"juy":4435,"jlw":4436,"jls":4437,"jew":4438,"kot":4439,"kxy":4440,"kry":4441,"mhe":4442,"mnc":4443,"msd":4444,"msj":4445,"nle":4446,"nxj":4447,"nqp":4448,"nxn":4449,"oqn":4450,"oaj":4451,"pmb":4452,"qrr":4453,"rtw":4454,"rgh":4455,"rkb":4456,"rzqo":4457,"sak":4458,"sps":4459,"sxj":4460,"soy":4461,"sxm":4462,"sxy":4463,"skh":4464,"svy":4465,"skf":4466,"svp":4467,"tqh":4468,"tuw":4469,"tpv":4470,"tpw":4471,"uoc":4472,"uiy":4473,"ugf":4474,"uqf":4475,"vit":4476,"vic":4477,"vth":4478,"viw":4479,"vet":4480,"vcp":4481,"vtd":4482,"vew":4483,"vmea":4484,"wof":4485,"wpb":4486,"wvh":4487,"wrw":4488,"xjb":4489,"xij":4490,"you":4491,"yuh":4492,"ymw":4493,"ynp":4494,"zun":4495,"zly":4496,"zay":4497,"zgh":4498,"zoj":4499,"zuw":4500,"inp":4501,"urv":4502,"arn":4503,"sei":4504,"oub":4505,"ume":4506,"mpn":4507,"ndh":4508,"lysi":4509,"icd":4510,"eny":4511,"iav":4512,"fte":4513,"aph":4514,"apz":4515,"cda":4516,"odq":4517,"odu":4518,"ovl":4519,"nsh":4520,"nsj":4521,"kej":4522,"avoj":4523,"wln":4524,"pdl":4525,"qjq":4526,"ogz":4527,"qbbz":4528,"zhp":4529,"qwv":4530,"iwy":4531,"qyw":4532,"zbr":4533,"iye":4534,"iyeo":4535,"ikq":4536,"oyl":4537,"xff":4538,"qdg":4539,"ukr":4540,"gjt":4541,"gkp":4542,"gkv":4543,"gkx":4544,"ojt":4545,"znh":4546,"xcf":4547,"upl":4548,"uhd":4549,"xsb":4550,"xsn":4551,"xsw":4552,"xdr":4553,"oeb":4554,"oeg":4555,"cbjf":4556,"gsyi":4557,"udj":4558,"udq":4559,"zli":4560,"zlk":4561,"mdh":4562,"fbq":4563,"mji":4564,"uee":4565,"rhr":4566,"gmn":4567,"qmi":4568,"qmz":4569,"kmq":4570,"cmc":4571,"rjv":4572,"gxo":4573,"igz":4574,"hdkt":4575,"nrf":4576,"nrcv":4577,"lfe":4578,"lfq":4579,"aqa":4580,"snu":4581,"feq":4582,"oqi":4583,"oqiq":4584,"oiz":4585,"gca":4586,"dbfu":4587,"qqq":4588,"maid":4589,"trrv":4590,"bnyu":4591,"zolx":4592,"bzh":4593,"bvb":4594,"fla":4595,"icl":4596,"izw":4597,"jal":4598,"jop":4599,"lxe":4600,"mnh":4601,"pqy":4602,"qxv":4603,"rqp":4604,"tlp":4605,"uuv":4606,"yuy":4607,"yky":4608,"ybb":4609,"urk":4610,"onq":4611,"idh":4612,"axl":4613,"xpl":4614,"wlc":4615,"cca":4616,"ipn":4617,"qbx":4618,"zfr":4619,"zdj":4620,"ozi":4621,"kvk":4622,"npl":4623,"aqj":4624,"acr":4625,"acy":4626,"bde":4627,"bxw":4628,"bpv":4629,"bew":4630,"brv":4631,"cih":4632,"dft":4633,"dla":4634,"dfh":4635,"dzl":4636,"eor":4637,"eoh":4638,"fsh":4639,"fnh":4640,"goh":4641,"gcw":4642,"hxp":4643,"hab":4644,"hrd":4645,"hss":4646,"htd":4647,"iqk":4648,"jgh":4649,"jla":4650,"juj":4651,"jos":4652,"jsj":4653,"kcs":4654,"luv":4655,"lry":4656,"mvg":4657,"mnb":4658,"nde":4659,"noy":4660,"nwy":4661,"ois":4662,"por":4663,"pzh":4664,"pwj":4665,"pzyc":4666,"qgf":4667,"rmh":4668,"suy":4669,"skb":4670,"sjd":4671,"slmz":4672,"tmy":4673,"ugb":4674,"uxs":4675,"vis":4676,"vsy":4677,"vty":4678,"wom":4679,"wqp":4680,"wzr":4681,"wtb":4682,"weh":4683,"xcd":4684,"yqp":4685,"ygt":4686,"yvd":4687,"yhy":4688,"yby":4689,"ury":4690,"ibd":4691,"ibu":4692,"emv":4693,"icx":4694,"utd":4695,"gnu":4696,"odv":4697,"twb":4698,"ncew":4699,"qup":4700,"ilw":4701,"asps":4702,"wlh":4703,"kng":4704,"trm":4705,"ipx":4706,"xkr":4707,"ohc":4708,"ujfz":4709,"xrc":4710,"ukt":4711,"ukv":4712,"ukw":4713,"gph":4714,"ojo":4715,"qsl":4716,"znq":4717,"zpa":4718,"zpu":4719,"ztn":4720,"uyy":4721,"qlt":4722,"osd":4723,"qpm":4724,"zsp":4725,"qez":4726,"uhu":4727,"gtkv":4728,"nvf":4729,"xsz":4730,"xls":4731,"zry":4732,"xnr":4733,"aej":4734,"nbux":4735,"qms":4736,"lwiv":4737,"sbe":4738,"qzz":4739,"cmn":4740,"lrv":4741,"lms":4742,"iga":4743,"zco":4744,"ziz":4745,"wngq":4746,"msg":4747,"wfjy":4748,"sitf":4749,"24":4750,"35":4751,"36":4752,"59":4753,"60":4754,"71":4755,"73":4756,"74":4757,"88":4758,"98":4759,"aok":4760,"awj":4761,"bst":4762,"bov":4763,"bke":4764,"bxp":4765,"bmh":4766,"bkh":4767,"bvv":4768,"bwb":4769,"btd":4770,"bmr":4771,"cis":4772,"czw":4773,"cxb":4774,"dik":4775,"dqh":4776,"dzf":4777,"dhb":4778,"dtt":4779,"een":4780,"eqs":4781,"fon":4782,"fge":4783,"fxk":4784,"fxw":4785,"fql":4786,"fnj":4787,"fcv":4788,"gis":4789,"gch":4790,"gxt":4791,"gos":4792,"hre":4793,"hzk":4794,"hpj":4795,"hsr":4796,"hmf":4797,"hjr":4798,"hfn":4799,"hjs":4800,"iip":4801,"iik":4802,"iicz":4803,"izsj":4804,"jint":4805,"jaj":4806,"jkd":4807,"jam":4808,"jss":4809,"jks":4810,"jhw":4811,"jogv":4812,"kou":4813,"krr":4814,"kab":4815,"kfh":4816,"lld":4817,"ltr":4818,"lqn":4819,"lih":4820,"lmh":4821,"lpv":4822,"lpb":4823,"lnn":4824,"mxp":4825,"mld":4826,"mll":4827,"mlb":4828,"msp":4829,"nks":4830,"nfp":4831,"oan":4832,"pps":4833,"pkd":4834,"qts":4835,"qem":4836,"qmv":4837,"rvg":4838,"rvh":4839,"rls":4840,"rlc":4841,"sll":4842,"sfh":4843,"sgw":4844,"scy":4845,"sne":4846,"sulj":4847,"tvw":4848,"txl":4849,"tmt":4850,"tlb":4851,"tcw":4852,"tkt":4853,"tzvi":4854,"ual":4855,"uaw":4856,"uie":4857,"vut":4858,"vav":4859,"vub":4860,"vaj":4861,"vkr":4862,"vmn":4863,"vdee":4864,"wzj":4865,"wzh":4866,"wxm":4867,"wsd":4868,"whd":4869,"xts":4870,"xgh":4871,"xwlr":4872,"yul":4873,"ytw":4874,"yvw":4875,"yxm":4876,"ynv":4877,"ycv":4878,"zog":4879,"zqc":4880,"zokh":4881,"clv":4882,"ums":4883,"umah":4884,"ndd":4885,"ndmh":4886,"gea":4887,"ofp":4888,"ofue":4889,"ctlw":4890,"opf":4891,"ulg":4892,"chy":4893,"iby":4894,"tsog":4895,"peh":4896,"pew":4897,"owo":4898,"adz":4899,"idk":4900,"idr":4901,"sip":4902,"six":4903,"vga":4904,"cdl":4905,"gnc":4906,"asj":4907,"asn":4908,"ifi":4909,"ifo":4910,"ypf":4911,"tro":4912,"ogg":4913,"ogm":4914,"ogga":4915,"ipj":4916,"jbc":4917,"jbo":4918,"zvo":4919,"lah":4920,"iwv":4921,"qyo":4922,"obv":4923,"xfk":4924,"xwg":4925,"gkkb":4926,"qnm":4927,"qnu":4928,"qvm":4929,"gpg":4930,"zmfy":4931,"ojf":4932,"oju":4933,"gvf":4934,"gvj":4935,"qsb":4936,"znn":4937,"zpm":4938,"zpz":4939,"ztcb":4940,"qlcz":4941,"qplz":4942,"qep":4943,"qcn":4944,"xdj":4945,"gsf":4946,"qrk":4947,"qtj":4948,"qtn":4949,"cso":4950,"awb":4951,"awc":4952,"xnu":4953,"vdfq":4954,"afs":4955,"phb":4956,"cfm":4957,"krne":4958,"kfr":4959,"eysc":4960,"qza":4961,"cmk":4962,"cmz":4963,"ozac":4964,"xxa":4965,"nnz":4966,"nnxh":4967,"uqof":4968,"lpz":4969,"jyso":4970,"uuu":4971,"zac":4972,"iqq":4973,"zci":4974,"xga":4975,"gzx":4976,"oqo":4977,"xiz":4978,"zzq":4979,"qqa":4980,"btzp":4981,"wsok":4982,"fcg":4983,"zoab":4984,"luz":4985,"ffu":4986,"hvoj":4987,"wgik":4988,"jgig":4989,"ykxf":4990,"wvxf":4991,"jrbm":4992,"vqjo":4993,"lquk":4994,"dgvz":4995,"jafz":4996,"jnjs":4997,"vunf":4998,"tukm":4999,"xshw":5000,"uama":5001,"mctj":5002,"bila":5003,"ese":5004,"eed":5005,"fts":5006,"hjd":5007,"jow":5008,"jwd":5009,"lte":5010,"lfs":5011,"nms":5012,"qly":5013,"rxk":5014,"rpt":5015,"som":5016,"vte":5017,"vll":5018,"xxk":5019,"yjt":5020,"zst":5021,"zou":5022,"lex":5023,"ouy":5024,"itm":5025,"ani":5026,"ohx":5027,"zfd":5028,"znzs":5029,"qtg":5030,"www":5031,"iux":5032,"nrz":5033,"fmc":5034,"aib":5035,"agd":5036,"bjb":5037,"bpy":5038,"blw":5039,"cgh":5040,"dop":5041,"dth":5042,"das":5043,"egw":5044,"epw":5045,"ebt":5046,"flj":5047,"gop":5048,"ggxi":5049,"hur":5050,"hah":5051,"hww":5052,"hfs":5053,"hhb":5054,"jet":5055,"jqy":5056,"jmj":5057,"jvb":5058,"junj":5059,"ker":5060,"kmp":5061,"kop":5062,"krd":5063,"kkt":5064,"lnc":5065,"lth":5066,"lzv":5067,"lpr":5068,"lijw":5069,"mog":5070,"mrd":5071,"ned":5072,"npt":5073,"ooy":5074,"oih":5075,"pio":5076,"plr":5077,"pmf":5078,"rnt":5079,"rzm":5080,"rmy":5081,"sgb":5082,"sxv":5083,"smb":5084,"spb":5085,"scw":5086,"srj":5087,"swh":5088,"sfn":5089,"sgvn":5090,"tld":5091,"ucp":5092,"vmv":5093,"vpj":5094,"wcc":5095,"wqy":5096,"wqs":5097,"xet":5098,"yra":5099,"ywb":5100,"zcb":5101,"urc":5102,"erv":5103,"ork":5104,"isr":5105,"loj":5106,"anp":5107,"ufb":5108,"chd":5109,"chuo":5110,"adj":5111,"idqq":5112,"iak":5113,"olw":5114,"xtk":5115,"twwf":5116,"ncz":5117,"nsm":5118,"ils":5119,"zjhi":5120,"qwa":5121,"zbs":5122,"xjs":5123,"zfjv":5124,"gvh":5125,"qsg":5126,"zta":5127,"ztg":5128,"ztyo":5129,"qfq":5130,"qls":5131,"xci":5132,"qev":5133,"xdc":5134,"gsu":5135,"zlr":5136,"cvt":5137,"crf":5138,"khqu":5139,"cnz":5140,"afp":5141,"qmk":5142,"vyd":5143,"hyrs":5144,"lsf":5145,"jjxc":5146,"kvz":5147,"lpm":5148,"npg":5149,"zigy":5150,"azq":5151,"azdd":5152,"oiqs":5153,"zgvw":5154,"htnb":5155,"zxa":5156,"ugi":5157,"ffo":5158,"fqa":5159,"vtgh":5160,"voah":5161,"dwgu":5162,"ykrb":5163,"nlof":5164,"yrbf":5165,"djje":5166,"jvdq":5167,"dmpa":5168,"gzeh":5169,"19":5170,"56":5171,"63":5172,"65":5173,"85":5174,"96":5175,"DI":5176,"DK":5177,"Fb":5178,"PI":5179,"SP":5180,"ase":5181,"aoy":5182,"amb":5183,"amy":5184,"aavi":5185,"ausc":5186,"bah":5187,"bcp":5188,"bww":5189,"bhw":5190,"bty":5191,"bknm":5192,"cun":5193,"cck":5194,"cof":5195,"cib":5196,"cpe":5197,"cqj":5198,"dor":5199,"dvg":5200,"dte":5201,"dip":5202,"dnj":5203,"dmh":5204,"dfw":5205,"dkj":5206,"drd":5207,"dby":5208,"dwk":5209,"eul":5210,"ext":5211,"evw":5212,"eqw":5213,"egl":5214,"ekh":5215,"evn":5216,"ejl":5217,"eek":5218,"fre":5219,"fle":5220,"fiv":5221,"fay":5222,"fld":5223,"fqn":5224,"fwy":5225,"fcj":5226,"ffe":5227,"ffjt":5228,"fxdl":5229,"gge":5230,"gxj":5231,"gxw":5232,"ggv":5233,"gmv":5234,"hot":5235,"hax":5236,"hth":5237,"huj":5238,"hfh":5239,"hxy":5240,"hkb":5241,"hcw":5242,"hjj":5243,"hsec":5244,"hmyd":5245,"ips":5246,"igh":5247,"igf":5248,"iiax":5249,"jck":5250,"jik":5251,"jqn":5252,"jtj":5253,"jvy":5254,"jkw":5255,"jkp":5256,"kly":5257,"kuf":5258,"kax":5259,"kgh":5260,"kgk":5261,"kuy":5262,"kss":5263,"kaye":5264,"lcl":5265,"luf":5266,"lft":5267,"lak":5268,"lwj":5269,"lkb":5270,"lmt":5271,"lvv":5272,"mzy":5273,"muw":5274,"mab":5275,"mrj":5276,"mls":5277,"miam":5278,"milj":5279,"mawh":5280,"muqa":5281,"nio":5282,"nop":5283,"npe":5284,"nsi":5285,"nas":5286,"nzk":5287,"oit":5288,"ocd":5289,"oak":5290,"ozh":5291,"oxb":5292,"oija":5293,"pny":5294,"pqn":5295,"pkt":5296,"pks":5297,"qqk":5298,"qgw":5299,"rgn":5300,"rqh":5301,"rmw":5302,"rnk":5303,"rodt":5304,"smm":5305,"ssy":5306,"sam":5307,"skw":5308,"sgnh":5309,"ton":5310,"tare":5311,"tts":5312,"tmd":5313,"uiv":5314,"vor":5315,"vow":5316,"vvg":5317,"vob":5318,"vlh":5319,"vud":5320,"vie":5321,"wit":5322,"wvg":5323,"wwj":5324,"why":5325,"wtt":5326,"wufw":5327,"xiw":5328,"xoh":5329,"xqe":5330,"xoz":5331,"yhe":5332,"yct":5333,"yts":5334,"ykh":5335,"yvh":5336,"ybf":5337,"zir":5338,"zqk":5339,"ery":5340,"arv":5341,"alt":5342,"aljt":5343,"sef":5344,"ntw":5345,"oudi":5346,"rrm":5347,"ndo":5348,"ndy":5349,"ndza":5350,"anu":5351,"ofh":5352,"oflh":5353,"ufs":5354,"ctu":5355,"irc":5356,"ddt":5357,"ivt":5358,"emfp":5359,"owr":5360,"owt":5361,"ayfv":5362,"siwn":5363,"fax":5364,"okr":5365,"qua":5366,"quo":5367,"tesg":5368,"ypx":5369,"cei":5370,"ceo":5371,"usqk":5372,"omq":5373,"ldt":5374,"knk":5375,"knw":5376,"knz":5377,"ogks":5378,"vwq":5379,"zkpd":5380,"qbu":5381,"qbv":5382,"iwb":5383,"iwcx":5384,"xko":5385,"zbv":5386,"xjei":5387,"iya":5388,"ujl":5389,"xfs":5390,"zwg":5391,"xrx":5392,"zfys":5393,"ukb":5394,"xwtq":5395,"gjr":5396,"qnf":5397,"qnnj":5398,"qvvw":5399,"gpy":5400,"zmb":5401,"zmh":5402,"zdv":5403,"xml":5404,"xmn":5405,"gdf":5406,"uwfq":5407,"ihn":5408,"zsf":5409,"zsr":5410,"zsu":5411,"qcg":5412,"uhh":5413,"fhld":5414,"nvs":5415,"fvqa":5416,"wyhs":5417,"xdo":5418,"oeck":5419,"xyl":5420,"udg":5421,"udt":5422,"qrp":5423,"xlg":5424,"crx":5425,"zrk":5426,"zro":5427,"awd":5428,"ueu":5429,"iekc":5430,"kyl":5431,"pwtl":5432,"rykq":5433,"gmay":5434,"tbvp":5435,"cff":5436,"pruj":5437,"ptt":5438,"ptxm":5439,"lro":5440,"guc":5441,"kso":5442,"ksgf":5443,"lmgx":5444,"aaz":5445,"lvz":5446,"kve":5447,"kvp":5448,"nwuo":5449,"oag":5450,"oai":5451,"zaq":5452,"hdui":5453,"ewvv":5454,"nrn":5455,"uci":5456,"ucgz":5457,"fkas":5458,"npn":5459,"bdvj":5460,"xgae":5461,"ppcg":5462,"wnrs":5463,"fmx":5464,"fee":5465,"gcx":5466,"mkx":5467,"hhcz":5468,"drlv":5469,"hvin":5470,"lzla":5471,"bxxm":5472,"swiy":5473,"dtts":5474,"ymoc":5475,"tmlo":5476,"sxod":5477,"ezxl":5478,"poip":5479,"jrbs":5480,"wtrs":5481,"ygdq":5482,"vvby":5483,"dgkz":5484,"ppbm":5485,"mclx":5486,"yira":5487,"jkru":5488,"tfsa":5489,"dwkc":5490,"azj":5491,"bkd":5492,"bss":5493,"giw":5494,"gmj":5495,"gmt":5496,"izj":5497,"kge":5498,"kkd":5499,"kcby":5500,"nps":5501,"nxb":5502,"tpp":5503,"wkj":5504,"yxb":5505,"ybj":5506,"urj":5507,"url":5508,"onv":5509,"chc":5510,"ocm":5511,"tea":5512,"yesk":5513,"usl":5514,"qja":5515,"gjk":5516,"gvq":5517,"gsy":5518,"grz":5519,"gmu":5520,"frxk":5521,"zuwv":5522,"bnd":5523,"bec":5524,"biw":5525,"bmj":5526,"bpw":5527,"cin":5528,"cos":5529,"cxrz":5530,"dny":5531,"daj":5532,"dvb":5533,"eck":5534,"efj":5535,"eeh":5536,"elk":5537,"fak":5538,"fgy":5539,"fcy":5540,"gan":5541,"gth":5542,"hay":5543,"hlj":5544,"hvd":5545,"hvn":5546,"hxui":5547,"irra":5548,"jmd":5549,"jfd":5550,"jtt":5551,"kzm":5552,"lgh":5553,"lqw":5554,"lqh":5555,"lqv":5556,"lgy":5557,"lfw":5558,"lgw":5559,"lkh":5560,"lpy":5561,"mft":5562,"mie":5563,"mqhz":5564,"mqbt":5565,"nny":5566,"nkj":5567,"nky":5568,"nsem":5569,"nqjl":5570,"nzkr":5571,"nxbw":5572,"pll":5573,"ppj":5574,"qll":5575,"qztq":5576,"rof":5577,"rgy":5578,"rktv":5579,"sxt":5580,"tay":5581,"tah":5582,"tqp":5583,"tkb":5584,"ugn":5585,"uzp":5586,"vns":5587,"vab":5588,"vcw":5589,"vwla":5590,"vmtq":5591,"wot":5592,"wge":5593,"wmm":5594,"wtd":5595,"wgvi":5596,"xvw":5597,"yjb":5598,"yfy":5599,"yaw":5600,"yne":5601,"ykp":5602,"ytk":5603,"ytf":5604,"zop":5605,"zny":5606,"zpd":5607,"inr":5608,"nta":5609,"nte":5610,"ntv":5611,"umi":5612,"mepa":5613,"annv":5614,"ofz":5615,"irvs":5616,"ddk":5617,"ivc":5618,"adm":5619,"iaj":5620,"iaks":5621,"apb":5622,"apr":5623,"oliz":5624,"ovs":5625,"ncn":5626,"okgd":5627,"imz":5628,"ypd":5629,"avq":5630,"avse":5631,"shl":5632,"qjr":5633,"ecua":5634,"trng":5635,"zkk":5636,"zku":5637,"qwd":5638,"obl":5639,"xfh":5640,"xbq":5641,"ukg":5642,"ojr":5643,"ahob":5644,"znu":5645,"zpg":5646,"zpo":5647,"zpp":5648,"ztv":5649,"gdl":5650,"xhd":5651,"uyqp":5652,"uyli":5653,"qpgw":5654,"zsz":5655,"upm":5656,"fjf":5657,"fhpw":5658,"gtg":5659,"gtm":5660,"zltr":5661,"mdm":5662,"fbg":5663,"qrj":5664,"qtz":5665,"cvvr":5666,"ael":5667,"mws":5668,"vhyd":5669,"afce":5670,"qmg":5671,"phxf":5672,"cfq":5673,"wwuy":5674,"sbzj":5675,"pro":5676,"xxu":5677,"qga":5678,"qgq":5679,"iqi":5680,"ewkl":5681,"nrv":5682,"sjq":5683,"yhol":5684,"kkk":5685,"yscm":5686,"lgxj":5687,"pkz":5688,"cqut":5689,"dncl":5690,"jnmt":5691,"kcqz":5692,"tuih":5693,"miqm":5694,"roar":5695,"duoi":5696,"rppg":5697,"zquq":5698,"agfv":5699,"slyd":5700,"mcew":5701,"yxtf":5702,"zcnx":5703,"whbe":5704,"ndei":5705,"miex":5706,"11":5707,"26":5708,"27":5709,"39":5710,"53":5711,"72":5712,"86":5713,"94":5714,"DH":5715,"FW":5716,"JU":5717,"JZ":5718,"PW":5719,"Zz":5720,"aik":5721,"aos":5722,"audx":5723,"bse":5724,"bed":5725,"bqh":5726,"bey":5727,"bjh":5728,"biug":5729,"bpdl":5730,"csh":5731,"cuh":5732,"dgb":5733,"duy":5734,"dfy":5735,"dmt":5736,"dsy":5737,"dwb":5738,"dye":5739,"ead":5740,"eol":5741,"eim":5742,"eue":5743,"elj":5744,"egdr":5745,"eojs":5746,"fde":5747,"fun":5748,"fly":5749,"foc":5750,"fmt":5751,"fey":5752,"fwjy":5753,"gio":5754,"grr":5755,"gul":5756,"gak":5757,"gov":5758,"glh":5759,"gcfk":5760,"gxnr":5761,"huf":5762,"hts":5763,"hzj":5764,"hqy":5765,"hgy":5766,"hoe":5767,"hkh":5768,"hmy":5769,"hjy":5770,"hjt":5771,"hsp":5772,"hfyg":5773,"hvsg":5774,"hpdo":5775,"iut":5776,"ixfz":5777,"iqzq":5778,"ipdb":5779,"jnv":5780,"jmv":5781,"jvh":5782,"jry":5783,"jeh":5784,"jemv":5785,"kX":5786,"klo":5787,"kkb":5788,"kqmx":5789,"kgpn":5790,"kgwm":5791,"lqk":5792,"lrh":5793,"lne":5794,"mer":5795,"mes":5796,"mly":5797,"mcd":5798,"mqd":5799,"mgb":5800,"mgp":5801,"mwy":5802,"mcs":5803,"mnw":5804,"msr":5805,"mirl":5806,"mzvy":5807,"nxp":5808,"net":5809,"npb":5810,"oxt":5811,"ozj":5812,"pct":5813,"ppe":5814,"pif":5815,"plht":5816,"pild":5817,"qou":5818,"qit":5819,"qak":5820,"qyp":5821,"qip":5822,"qzj":5823,"qgh":5824,"qzf":5825,"qavo":5826,"qxfm":5827,"qgvt":5828,"ros":5829,"rmb":5830,"rcb":5831,"sot":5832,"sns":5833,"sqf":5834,"scp":5835,"srd":5836,"skr":5837,"svj":5838,"svv":5839,"sobm":5840,"sohg":5841,"tte":5842,"tas":5843,"tog":5844,"txj":5845,"toy":5846,"tuh":5847,"tnh":5848,"todx":5849,"tnej":5850,"uiw":5851,"ucn":5852,"uxeb":5853,"ugba":5854,"uosf":5855,"ugjg":5856,"vxt":5857,"vcy":5858,"vmy":5859,"vosx":5860,"vfaw":5861,"wim":5862,"wny":5863,"waj":5864,"wmv":5865,"wgl":5866,"wcy":5867,"wpr":5868,"wnr":5869,"wsj":5870,"wvdb":5871,"xrs":5872,"xzb":5873,"xtso":5874,"yis":5875,"yub":5876,"ymm":5877,"ykd":5878,"ysy":5879,"ylj":5880,"yry":5881,"ylt":5882,"yvv":5883,"yjh":5884,"yqds":5885,"ympf":5886,"ylfq":5887,"zes":5888,"zsh":5889,"zij":5890,"zchi":5891,"zobp":5892,"inx":5893,"stu":5894,"urws":5895,"hei":5896,"heqn":5897,"lehu":5898,"esg":5899,"esqc":5900,"loa":5901,"los":5902,"lopy":5903,"otmg":5904,"umw":5905,"zev":5906,"zeau":5907,"ckzu":5908,"meo":5909,"mego":5910,"ath":5911,"ufo":5912,"rae":5913,"ibdp":5914,"emof":5915,"peam":5916,"idb":5917,"icvs":5918,"ayla":5919,"aybf":5920,"iai":5921,"sizv":5922,"irmn":5923,"ftm":5924,"apk":5925,"ocmv":5926,"edk":5927,"edxm":5928,"gnb":5929,"akse":5930,"fahd":5931,"axb":5932,"axfa":5933,"nsrs":5934,"qug":5935,"qus":5936,"ilf":5937,"ilh":5938,"imm":5939,"imyv":5940,"asb":5941,"ass":5942,"ifuc":5943,"cehw":5944,"wlb":5945,"wlf":5946,"ccz":5947,"pdc":5948,"psff":5949,"llwn":5950,"ipy":5951,"zky":5952,"ubl":5953,"ubv":5954,"zhc":5955,"jbzs":5956,"jblk":5957,"jbsu":5958,"jbyu":5959,"zvhp":5960,"iwkm":5961,"qyt":5962,"qysy":5963,"zbma":5964,"xjx":5965,"iyh":5966,"iylh":5967,"qda":5968,"qhh":5969,"xbiq":5970,"xrw":5971,"qkzj":5972,"xwb":5973,"mmyr":5974,"gjc":5975,"gjqd":5976,"gbhe":5977,"gkye":5978,"gkcx":5979,"qvv":5980,"qvkd":5981,"gfyz":5982,"gpnv":5983,"zmj":5984,"ojg":5985,"oji":5986,"gvs":5987,"uvwl":5988,"uvmg":5989,"qso":5990,"znz":5991,"xmg":5992,"ztp":5993,"ztt":5994,"ztbh":5995,"rbyp":5996,"rbtr":5997,"ihmo":5998,"qpab":5999,"upj":6000,"qeuw":6001,"nvxg":6002,"mhm":6003,"mvik":6004,"xeqa":6005,"xejg":6006,"mbz":6007,"xdx":6008,"oej":6009,"gsb":6010,"gswr":6011,"xyjj":6012,"udb":6013,"zlw":6014,"mdaq":6015,"mdvn":6016,"qrme":6017,"fwpu":6018,"kjtt":6019,"xlzm":6020,"grj":6021,"kbie":6022,"crp":6023,"zrg":6024,"zrh":6025,"zrj":6026,"zrn":6027,"zrfm":6028,"awz":6029,"awbx":6030,"ueq":6031,"gln":6032,"aep":6033,"mwd":6034,"pvar":6035,"ieq":6036,"cjf":6037,"cjcm":6038,"nhm":6039,"kyd":6040,"pwi":6041,"icep":6042,"pbhg":6043,"fdk":6044,"vbhr":6045,"lbzh":6046,"lbfo":6047,"rhj":6048,"amk":6049,"cwxi":6050,"gmq":6051,"vyxx":6052,"pjgy":6053,"cfo":6054,"krl":6055,"sbu":6056,"pru":6057,"qzi":6058,"cmg":6059,"cmi":6060,"kwwj":6061,"rjtp":6062,"gxq":6063,"ktym":6064,"lri":6065,"guu":6066,"xxz":6067,"hbzy":6068,"hbxe":6069,"nniw":6070,"igi":6071,"aau":6072,"lvtl":6073,"frn":6074,"frv":6075,"bbxx":6076,"ttul":6077,"mrn":6078,"jdpg":6079,"zau":6080,"srog":6081,"nrmc":6082,"xgc":6083,"mffu":6084,"ziqp":6085,"houz":6086,"jhpw":6087,"gzz":6088,"lnm":6089,"lnx":6090,"oqx":6091,"vfcu":6092,"mkz":6093,"dbgy":6094,"zzx":6095,"tvxt":6096,"jros":6097,"hhpn":6098,"wrix":6099,"wrkq":6100,"zga":6101,"svi":6102,"dpcj":6103,"fnz":6104,"uaqg":6105,"fca":6106,"jwv":6107,"jwxg":6108,"tkfy":6109,"jsly":6110,"zqse":6111,"tnqj":6112,"dskn":6113,"ywkj":6114,"ywoo":6115,"jeph":6116,"vkum":6117,"vlkh":6118,"vtxu":6119,"nuz":6120,"cuz":6121,"wgic":6122,"kzrs":6123,"dkly":6124,"hjgq":6125,"kigm":6126,"nqqh":6127,"uoec":6128,"ykak":6129,"bagh":6130,"wvum":6131,"elin":6132,"kuoa":6133,"skql":6134,"tcwy":6135,"rooc":6136,"scct":6137,"vxqz":6138,"noqu":6139,"daip":6140,"bcgc":6141,"soql":6142,"wtrm":6143,"ffhn":6144,"lnhi":6145,"iusq":6146,"oolp":6147,"ools":6148,"jqkv":6149,"pfds":6150,"bxsg":6151,"vrbh":6152,"zihm":6153,"gxpv":6154,"gmee":6155,"ylwu":6156,"jhya":6157,"kwje":6158,"msht":6159,"hila":6160,"dxpf":6161,"eahk":6162,"dcsc":6163,"gqwt":6164,"hxvk":6165,"fgms":6166,"niws":6167,"dtpf":6168,"ixlz":6169,"sozg":6170,"fpbh":6171,"tckz":6172,"wedp":6173,"fheb":6174,"yowm":6175,"fkbr":6176,"bntd":6177,"svyt":6178,"ucne":6179,"buv":6180,"cps":6181,"eqv":6182,"euv":6183,"fcb":6184,"feh":6185,"gab":6186,"hak":6187,"lrj":6188,"nxy":6189,"oen":6190,"uih":6191,"wrv":6192,"ymt":6193,"ykt":6194,"zov":6195,"ndi":6196,"ivy":6197,"vgrt":6198,"okm":6199,"omo":6200,"lacb":6201,"zpx":6202,"qrz":6203,"nbx":6204,"lve":6205,"oohe":6206,"uxa":6207,"htaj":6208,"auw":6209,"bat":6210,"bld":6211,"bqw":6212,"bxk":6213,"btb":6214,"cqsu":6215,"czet":6216,"cuvu":6217,"dcv":6218,"dpb":6219,"drv":6220,"dfg":6221,"egk":6222,"evh":6223,"epj":6224,"fcs":6225,"fpw":6226,"fph":6227,"fseu":6228,"gqj":6229,"gjb":6230,"hle":6231,"hch":6232,"hol":6233,"hog":6234,"hip":6235,"hgb":6236,"hwy":6237,"hjh":6238,"hibu":6239,"iun":6240,"jzy":6241,"jlj":6242,"jvf":6243,"jcjl":6244,"jthj":6245,"kib":6246,"klh":6247,"lal":6248,"lqf":6249,"lvd":6250,"lcw":6251,"lkw":6252,"mnj":6253,"nrs":6254,"nup":6255,"nifw":6256,"oir":6257,"ooj":6258,"ple":6259,"pge":6260,"pte":6261,"pgw":6262,"plm":6263,"qct":6264,"qzh":6265,"qzd":6266,"sfwc":6267,"tzyx":6268,"uow":6269,"uas":6270,"ugl":6271,"uuma":6272,"uqpa":6273,"vst":6274,"vcd":6275,"vcs":6276,"vky":6277,"vlco":6278,"wen":6279,"wrb":6280,"wfh":6281,"wfw":6282,"wmw":6283,"wvd":6284,"xuf":6285,"xok":6286,"xupy":6287,"yll":6288,"zct":6289,"zaj":6290,"zxy":6291,"onxq":6292,"rrv":6293,"umc":6294,"mpe":6295,"mpyg":6296,"ann":6297,"anwv":6298,"rai":6299,"ulhm":6300,"adl":6301,"iake":6302,"sig":6303,"siw":6304,"uth":6305,"gern":6306,"oday":6307,"odrv":6308,"notq":6309,"ife":6310,"xpo":6311,"omd":6312,"omag":6313,"llnc":6314,"ecbz":6315,"zks":6316,"qwy":6317,"laq":6318,"xkk":6319,"iyf":6320,"ujsm":6321,"ikrb":6322,"qka":6323,"uki":6324,"mmim":6325,"xvhw":6326,"gfs":6327,"gfu":6328,"ahuq":6329,"zpb":6330,"ztd":6331,"gdj":6332,"xcr":6333,"lhz":6334,"gtv":6335,"fvi":6336,"xscf":6337,"udo":6338,"udsg":6339,"zlit":6340,"kjwu":6341,"mwql":6342,"cjs":6343,"cyxc":6344,"tjcc":6345,"vysi":6346,"kmi":6347,"cml":6348,"vvrh":6349,"lmg":6350,"aaq":6351,"fpa":6352,"fpi":6353,"oox":6354,"czq":6355,"ggq":6356,"rwkt":6357,"xux":6358,"dhzj":6359,"yhmw":6360,"qqo":6361,"luik":6362,"pkxm":6363,"mga":6364,"eklo":6365,"ebrb":6366,"efnr":6367,"yaaf":6368,"hatf":6369,"scoh":6370,"yiyh":6371,"aihs":6372,"dfja":6373,"ktsu":6374,"xgfi":6375,"kkhx":6376,"nkht":6377,"vvbw":6378,"duvf":6379,"egqi":6380,"fewt":6381,"llee":6382,"fkmn":6383,"gadc":6384,"drvl":6385,"18":6386,"37":6387,"AQ":6388,"BH":6389,"BM":6390,"LA":6391,"MA":6392,"MC":6393,"MJ":6394,"ML":6395,"OF":6396,"OU":6397,"QA":6398,"SG":6399,"VR":6400,"VT":6401,"YH":6402,"YZ":6403,"Ya":6404,"ais":6405,"ack":6406,"azd":6407,"aioa":6408,"azeq":6409,"azfs":6410,"bes":6411,"bmp":6412,"bra":6413,"bsh":6414,"bgb":6415,"bup":6416,"bie":6417,"bkw":6418,"bnw":6419,"bhd":6420,"bws":6421,"bsv":6422,"bchm":6423,"bzcq":6424,"binv":6425,"busz":6426,"cat":6427,"carr":6428,"cij":6429,"cuw":6430,"cznb":6431,"cfwg":6432,"doc":6433,"dov":6434,"dgh":6435,"dab":6436,"dpw":6437,"dvh":6438,"dss":6439,"dkm":6440,"dtd":6441,"dbd":6442,"dfm":6443,"dsn":6444,"dfe":6445,"dws":6446,"dquw":6447,"dqjo":6448,"dreg":6449,"dmkx":6450,"dzau":6451,"eab":6452,"ewj":6453,"elb":6454,"eby":6455,"epp":6456,"eln":6457,"eqnw":6458,"eaxs":6459,"eeso":6460,"fio":6461,"for":6462,"frr":6463,"fra":6464,"fqd":6465,"flw":6466,"fsd":6467,"ffmu":6468,"flpn":6469,"gqk":6470,"gndm":6471,"golf":6472,"guei":6473,"hrr":6474,"hqf":6475,"hmv":6476,"hcj":6477,"hcy":6478,"hvr":6479,"hozo":6480,"ist":6481,"iis":6482,"iim":6483,"ixkq":6484,"jol":6485,"jok":6486,"jog":6487,"jzh":6488,"jmm":6489,"jcb":6490,"jxl":6491,"jhb":6492,"jnr":6493,"jvp":6494,"jzpf":6495,"jvdb":6496,"jxro":6497,"kzv":6498,"koy":6499,"kgb":6500,"kuv":6501,"kzd":6502,"kqf":6503,"kkj":6504,"kmw":6505,"kkez":6506,"kiei":6507,"klaz":6508,"lqb":6509,"lgf":6510,"lzn":6511,"lpj":6512,"lvhf":6513,"mny":6514,"moy":6515,"mfh":6516,"mrh":6517,"mgx":6518,"mlp":6519,"mfk":6520,"mlf":6521,"mkdk":6522,"mccb":6523,"nvg":6524,"nil":6525,"nxk":6526,"nab":6527,"nkb":6528,"ngw":6529,"npw":6530,"npy":6531,"nkp":6532,"nlwz":6533,"nzfg":6534,"nzdk":6535,"ngmx":6536,"oK":6537,"oqj":6538,"ozf":6539,"oxh":6540,"oqvq":6541,"per":6542,"pat":6543,"pof":6544,"pav":6545,"puw":6546,"pnn":6547,"qen":6548,"qov":6549,"qidf":6550,"qqlh":6551,"qxpt":6552,"rqn":6553,"rpv":6554,"rtd":6555,"rupw":6556,"rtlg":6557,"sal":6558,"sus":6559,"srb":6560,"sql":6561,"sfv":6562,"scb":6563,"smy":6564,"swn":6565,"sac":6566,"swt":6567,"savo":6568,"skef":6569,"szdt":6570,"tze":6571,"tge":6572,"toh":6573,"tvf":6574,"tgvr":6575,"uol":6576,"uak":6577,"uzy":6578,"ucb":6579,"ugw":6580,"val":6581,"vmp":6582,"vate":6583,"vzm":6584,"vqp":6585,"vlb":6586,"vcm":6587,"vkw":6588,"vml":6589,"vlta":6590,"vxei":6591,"won":6592,"wze":6593,"wble":6594,"wem":6595,"wid":6596,"wuj":6597,"wgj":6598,"wgf":6599,"wuv":6600,"wuh":6601,"wvv":6602,"wsr":6603,"wvp":6604,"wznw":6605,"wcms":6606,"wuky":6607,"wstp":6608,"xxf":6609,"xqd":6610,"xuv":6611,"xofd":6612,"xzpv":6613,"xenw":6614,"xoyl":6615,"yer":6616,"yly":6617,"ync":6618,"yqh":6619,"yfj":6620,"ymv":6621,"yqcm":6622,"yuga":6623,"zod":6624,"zzk":6625,"zgyh":6626,"zimq":6627,"zifh":6628,"zlos":6629,"inu":6630,"rec":6631,"cla":6632,"clr":6633,"iod":6634,"ioqs":6635,"iohy":6636,"urih":6637,"hef":6638,"heuf":6639,"arkb":6640,"arie":6641,"orkw":6642,"alj":6643,"onw":6644,"onzn":6645,"sea":6646,"lodh":6647,"ntr":6648,"otro":6649,"oukh":6650,"umg":6651,"umj":6652,"mpz":6653,"mpjm":6654,"zem":6655,"unx":6656,"meta":6657,"geg":6658,"gemg":6659,"ofn":6660,"ufc":6661,"ufoc":6662,"ctar":6663,"ddq":6664,"chwu":6665,"ibup":6666,"ivj":6667,"iviv":6668,"emd":6669,"penc":6670,"owuj":6671,"adt":6672,"ayiz":6673,"iawy":6674,"iamn":6675,"vgb":6676,"vgiy":6677,"vgql":6678,"ftki":6679,"apa":6680,"apnx":6681,"ithd":6682,"lset":6683,"cdgs":6684,"ocjl":6685,"gnn":6686,"gnv":6687,"twwu":6688,"fae":6689,"fah":6690,"ovn":6691,"axg":6692,"axp":6693,"axnc":6694,"nsl":6695,"nss":6696,"nslx":6697,"tec":6698,"tezh":6699,"tewe":6700,"notp":6701,"quz":6702,"ilp":6703,"kep":6704,"ifvt":6705,"xplo":6706,"xprf":6707,"celo":6708,"wlk":6709,"wlw":6710,"ccj":6711,"nycb":6712,"usr":6713,"usfj":6714,"omho":6715,"ldtk":6716,"ecuq":6717,"knf":6718,"ogk":6719,"vwda":6720,"rsch":6721,"ipby":6722,"zkx":6723,"qbw":6724,"ubzl":6725,"zyj":6726,"zvl":6727,"zvie":6728,"qyy":6729,"zbm":6730,"xjwx":6731,"ikg":6732,"ikcn":6733,"iklg":6734,"obcq":6735,"obbo":6736,"oyvp":6737,"xfb":6738,"xfq":6739,"xfu":6740,"xfrt":6741,"qdn":6742,"qdrb":6743,"qhnb":6744,"zwk":6745,"zwu":6746,"zwze":6747,"xbbc":6748,"xrfb":6749,"qklk":6750,"qkrm":6751,"zfx":6752,"zfsf":6753,"ukp":6754,"ukil":6755,"mmut":6756,"mmww":6757,"gbgq":6758,"xvb":6759,"xvp":6760,"xvfv":6761,"xvaz":6762,"gkyv":6763,"qvu":6764,"qvti":6765,"zmq":6766,"gvde":6767,"gvfw":6768,"zdb":6769,"zdsz":6770,"qsd":6771,"qsm":6772,"zno":6773,"zto":6774,"gdi":6775,"xhb":6776,"uykh":6777,"uywg":6778,"qfb":6779,"qlig":6780,"gytw":6781,"qpj":6782,"zsjh":6783,"upmz":6784,"qef":6785,"qeic":6786,"fjlg":6787,"qca":6788,"qcsn":6789,"uhap":6790,"fhyh":6791,"wjwm":6792,"lhkd":6793,"lhsn":6794,"nvzi":6795,"nvnx":6796,"fvny":6797,"xdiz":6798,"gsd":6799,"xyan":6800,"udi":6801,"zlcn":6802,"fbv":6803,"qrm":6804,"qror":6805,"csso":6806,"cvta":6807,"kjgo":6808,"fyon":6809,"fygi":6810,"mjio":6811,"mjdn":6812,"grm":6813,"kbwx":6814,"crd":6815,"glsi":6816,"mwul":6817,"mwxx":6818,"nhhv":6819,"kymq":6820,"mtoa":6821,"pwmx":6822,"rdq":6823,"rdbh":6824,"pbnl":6825,"lbso":6826,"vdsn":6827,"cnq":6828,"cnxe":6829,"afg":6830,"afu":6831,"qmu":6832,"tbmt":6833,"vyh":6834,"lwqo":6835,"cffp":6836,"wwze":6837,"wwfi":6838,"krtk":6839,"sbsh":6840,"prv":6841,"kmkb":6842,"kfay":6843,"eyva":6844,"ozq":6845,"sdns":6846,"gxz":6847,"vvpo":6848,"wbcf":6849,"lrt":6850,"gui":6851,"hywg":6852,"xxi":6853,"lmc":6854,"lmx":6855,"lsow":6856,"xzo":6857,"xzx":6858,"tdnr":6859,"lvt":6860,"frx":6861,"czg":6862,"lpc":6863,"gga":6864,"ggc":6865,"uuic":6866,"zaz":6867,"ydzw":6868,"ydqs":6869,"hdym":6870,"iqa":6871,"iqon":6872,"nrq":6873,"nrzp":6874,"bdgk":6875,"nkof":6876,"tyu":6877,"tyet":6878,"tlqe":6879,"tlui":6880,"cifs":6881,"aux":6882,"wnff":6883,"dhrb":6884,"kkx":6885,"kkxn":6886,"sngn":6887,"bjly":6888,"weot":6889,"weqs":6890,"weks":6891,"lnzd":6892,"oqxy":6893,"tpmq":6894,"yeqp":6895,"oiqy":6896,"zuz":6897,"zuoa":6898,"gcg":6899,"vel":6900,"vexp":6901,"zzvw":6902,"uigs":6903,"qqog":6904,"wral":6905,"lki":6906,"svib":6907,"svui":6908,"zxiu":6909,"dyur":6910,"dyow":6911,"bspe":6912,"vscj":6913,"zoxx":6914,"kqzl":6915,"hsql":6916,"zqod":6917,"zqxv":6918,"rmuv":6919,"xaoh":6920,"drnr":6921,"dsnk":6922,"lggn":6923,"yrik":6924,"wkgg":6925,"vqir":6926,"vkqh":6927,"bkax":6928,"slax":6929,"slii":6930,"vlxc":6931,"hlio":6932,"jlnk":6933,"wgai":6934,"pqqw":6935,"gao":6936,"dtot":6937,"huit":6938,"vagt":6939,"pluu":6940,"rkgd":6941,"cgog":6942,"ynqe":6943,"efge":6944,"efqr":6945,"vcra":6946,"nxgj":6947,"kuae":6948,"wplp":6949,"tcxm":6950,"tcfb":6951,"ejge":6952,"ygid":6953,"bzxz":6954,"dgiv":6955,"nmfs":6956,"euxm":6957,"eucw":6958,"koxp":6959,"kozt":6960,"dlgh":6961,"vxvg":6962,"pgxt":6963,"eiqc":6964,"evcl":6965,"evlv":6966,"evzo":6967,"bcoe":6968,"naan":6969,"ngzp":6970,"piiu":6971,"hzql":6972,"eaaj":6973,"wcin":6974,"boxr":6975,"doiu":6976,"kvwb":6977,"ygdg":6978,"fota":6979,"exss":6980,"xikc":6981,"nzyl":6982,"nzyo":6983,"oqlc":6984,"dgve":6985,"pzbf":6986,"jafn":6987,"ggbm":6988,"fumq":6989,"fpvy":6990,"oqko":6991,"juvo":6992,"zqye":6993,"wrey":6994,"vgef":6995,"rpjl":6996,"xqhc":6997,"zxhd":6998,"bota":6999,"ykjt":7000,"ffvq":7001,"hafq":7002,"qokz":7003,"btrf":7004,"eutu":7005,"mxbh":7006,"xxyx":7007,"dxvu":7008,"nqhg":7009,"nemn":7010,"wclj":7011,"bnex":7012,"fryy":7013,"rneq":7014,"sahm":7015,"azpq":7016,"uaxp":7017,"pqex":7018,"txfn":7019,"wpsb":7020,"wzdy":7021,"bubp":7022,"ejrg":7023,"jooq":7024,"qalh":7025,"bspk":7026,"cidi":7027,"drwm":7028,"ejeg":7029,"jlsm":7030,"zunf":7031,"scyt":7032,"gmva":7033,"swto":7034,"acs":7035,"hls":7036,"kcv":7037,"ksd":7038,"nqd":7039,"oqtq":7040,"pck":7041,"pxt":7042,"pogu":7043,"sav":7044,"sob":7045,"tkez":7046,"wle":7047,"xxt":7048,"xxvc":7049,"yun":7050,"ykw":7051,"zxvj":7052,"algx":7053,"ntm":7054,"ntkh":7055,"ntwg":7056,"mevb":7057,"ulh":7058,"peol":7059,"ayb":7060,"vgc":7061,"knb":7062,"etpc":7063,"xjhr":7064,"qdvi":7065,"xruk":7066,"xvm":7067,"qlv":7068,"xel":7069,"udid":7070,"zls":7071,"qru":7072,"mjr":7073,"kvpk":7074,"uqq":7075,"uuo":7076,"sniq":7077,"zug":7078,"vrp":7079,"fapn":7080,"lzmc":7081,"spwb":7082,"tzjd":7083,"nutm":7084,"ymbq":7085,"eilw":7086,"fzwr":7087,"rtjz":7088,"ybbe":7089,"aglf":7090,"bzy":7091,"bgd":7092,"bfw":7093,"bmf":7094,"bpp":7095,"bwn":7096,"bodi":7097,"cot":7098,"dnh":7099,"dnk":7100,"dcif":7101,"dyh":7102,"dfrq":7103,"dtwb":7104,"egyz":7105,"fec":7106,"ffd":7107,"flb":7108,"fcn":7109,"gly":7110,"gih":7111,"gmb":7112,"gobm":7113,"gqrq":7114,"hlo":7115,"has":7116,"hos":7117,"hvj":7118,"hfe":7119,"hksx":7120,"iqj":7121,"jup":7122,"kww":7123,"ksb":7124,"lzj":7125,"lss":7126,"mle":7127,"mlo":7128,"mfj":7129,"mqr":7130,"mfs":7131,"mgtp":7132,"nra":7133,"nzj":7134,"nuv":7135,"nrb":7136,"nuy":7137,"oiw":7138,"pol":7139,"pjb":7140,"poyb":7141,"pmjx":7142,"pqrl":7143,"qcl":7144,"qxk":7145,"qqh":7146,"rog":7147,"rzj":7148,"rmm":7149,"rml":7150,"spd":7151,"szh":7152,"suh":7153,"swj":7154,"svb":7155,"the":7156,"tit":7157,"tut":7158,"tqb":7159,"tkw":7160,"txnl":7161,"tazg":7162,"uzrx":7163,"uojc":7164,"vrs":7165,"vry":7166,"vzai":7167,"wte":7168,"wxd":7169,"wcv":7170,"wky":7171,"wnw":7172,"wzwf":7173,"wisq":7174,"wcjw":7175,"xop":7176,"xob":7177,"yit":7178,"yof":7179,"yuf":7180,"yen":7181,"yzd":7182,"yfb":7183,"ynh":7184,"yhd":7185,"yew":7186,"ybd":7187,"ybe":7188,"ychg":7189,"zut":7190,"zcv":7191,"zozi":7192,"als":7193,"onf":7194,"lexn":7195,"isps":7196,"loh":7197,"lox":7198,"otl":7199,"otck":7200,"otrx":7201,"oue":7202,"rrzf":7203,"ckmc":7204,"anm":7205,"atjw":7206,"ofgv":7207,"ufpp":7208,"ctum":7209,"ctik":7210,"ctwo":7211,"iry":7212,"razv":7213,"ddok":7214,"ibt":7215,"pece":7216,"owc":7217,"icnr":7218,"aygi":7219,"ftf":7220,"olc":7221,"cdw":7222,"ocb":7223,"xtef":7224,"oduj":7225,"twq":7226,"nsv":7227,"telo":7228,"ilz":7229,"ilzb":7230,"wlq":7231,"omw":7232,"knvs":7233,"vwz":7234,"rsw":7235,"ipg":7236,"zjcs":7237,"ubo":7238,"uby":7239,"qwbw":7240,"lau":7241,"iwds":7242,"xktf":7243,"zbe":7244,"zbfs":7245,"ohsh":7246,"iyuk":7247,"oby":7248,"qdrq":7249,"qhv":7250,"ukqt":7251,"xwpf":7252,"qvr":7253,"gpj":7254,"gvtg":7255,"rbja":7256,"oso":7257,"njwr":7258,"abdc":7259,"qcs":7260,"fhhw":7261,"wjiw":7262,"gtpc":7263,"fvj":7264,"xeou":7265,"gsfg":7266,"xyrn":7267,"qrhq":7268,"xlz":7269,"awny":7270,"ieft":7271,"myck":7272,"myat":7273,"myqh":7274,"syyv":7275,"sywo":7276,"rhc":7277,"ama":7278,"ryue":7279,"gmk":7280,"gmns":7281,"tbtb":7282,"sbv":7283,"iuiv":7284,"sdcf":7285,"ktul":7286,"lru":7287,"lsu":7288,"yykr":7289,"uqgu":7290,"czc":7291,"ggi":7292,"jdax":7293,"ewqa":7294,"ewhi":7295,"rwes":7296,"sjvg":7297,"kkgf":7298,"vpks":7299,"wejk":7300,"tpga":7301,"btoz":7302,"wslt":7303,"msl":7304,"jsqy":7305,"rmqn":7306,"qxo":7307,"hmiy":7308,"macb":7309,"fqch":7310,"wfqj":7311,"hvrs":7312,"hvmm":7313,"rfge":7314,"dkxh":7315,"kcen":7316,"kgae":7317,"suor":7318,"hgoz":7319,"sxir":7320,"wpxe":7321,"ygzy":7322,"yczt":7323,"eojb":7324,"eoxk":7325,"lxvc":7326,"cnhm":7327,"uopf":7328,"rzyt":7329,"hneh":7330,"luri":7331,"jfth":7332,"uipu":7333,"luto":7334,"xnyw":7335,"bxtj":7336,"cmyi":7337,"rqyf":7338,"rggg":7339,"jnsw":7340,"kcyj":7341,"kkwk":7342,"fpjj":7343,"tupp":7344,"elmn":7345,"kzpk":7346,"mztf":7347,"rqve":7348,"vewq":7349,"jlaa":7350,"rzmz":7351,"61":7352,"80":7353,"81":7354,"84":7355,"92":7356,"95":7357,"BJ":7358,"DY":7359,"Do":7360,"EK":7361,"FB":7362,"GA":7363,"IH":7364,"KZ":7365,"LM":7366,"Lc":7367,"Lp":7368,"MY":7369,"Mt":7370,"NZ":7371,"Ni":7372,"Nq":7373,"PL":7374,"Pq":7375,"QW":7376,"QY":7377,"QZ":7378,"RN":7379,"SZ":7380,"Sl":7381,"TV":7382,"UG":7383,"XO":7384,"XS":7385,"ZM":7386,"ZN":7387,"ZS":7388,"Zb":7389,"aor":7390,"aarr":7391,"aft":7392,"ajb":7393,"azv":7394,"aiw":7395,"agp":7396,"aats":7397,"aaxi":7398,"asiq":7399,"aztj":7400,"agxa":7401,"agmg":7402,"aczo":7403,"bzv":7404,"bcr":7405,"bpb":7406,"bhy":7407,"bnn":7408,"bfr":7409,"bkp":7410,"bqjf":7411,"bsec":7412,"bohn":7413,"bzpr":7414,"boyq":7415,"bvws":7416,"bidz":7417,"bxxg":7418,"bibl":7419,"bxmr":7420,"bfjq":7421,"bafe":7422,"bgjs":7423,"buug":7424,"bnpl":7425,"bcfm":7426,"cow":7427,"ced":7428,"cny":7429,"cab":7430,"cqe":7431,"cue":7432,"cgtc":7433,"cuhm":7434,"cxfm":7435,"cuky":7436,"cypp":7437,"ciwd":7438,"ciys":7439,"cwla":7440,"cqyq":7441,"cftv":7442,"cuwj":7443,"cfyx":7444,"dzy":7445,"dmd":7446,"dph":7447,"dvj":7448,"dpt":7449,"dtl":7450,"dbh":7451,"dmn":7452,"dfu":7453,"dxwf":7454,"dxfz":7455,"dfwc":7456,"dzwe":7457,"dayf":7458,"dqsr":7459,"dxei":7460,"dzwq":7461,"dabe":7462,"dfwu":7463,"diuu":7464,"dgjx":7465,"dadh":7466,"dolr":7467,"dxmk":7468,"dqrd":7469,"dlsc":7470,"digz":7471,"dlfe":7472,"dxwg":7473,"dznn":7474,"dnpg":7475,"eme":7476,"ets":7477,"eap":7478,"eov":7479,"eik":7480,"eob":7481,"efh":7482,"ezl":7483,"efw":7484,"ekm":7485,"ept":7486,"efr":7487,"eesn":7488,"eypq":7489,"eubj":7490,"eixg":7491,"evvc":7492,"eemr":7493,"eane":7494,"fR":7495,"fed":7496,"fqb":7497,"fet":7498,"foy":7499,"fzd":7500,"ffj":7501,"fcp":7502,"fpy":7503,"fox":7504,"fsth":7505,"fxpr":7506,"fgtn":7507,"fntz":7508,"fprp":7509,"fuqo":7510,"fzlu":7511,"fqpc":7512,"fqyw":7513,"gut":7514,"gke":7515,"gpd":7516,"gvw":7517,"ggj":7518,"gcv":7519,"gped":7520,"gnti":7521,"gqzc":7522,"gojv":7523,"gwlg":7524,"ggtd":7525,"gzco":7526,"hlib":7527,"hcd":7528,"hfw":7529,"hcr":7530,"hpb":7531,"hnk":7532,"hsj":7533,"hfm":7534,"hoyq":7535,"hqyj":7536,"hmea":7537,"hwlr":7538,"hxro":7539,"hifp":7540,"hzii":7541,"hujn":7542,"hady":7543,"hghb":7544,"hxnp":7545,"hzzo":7546,"hnsj":7547,"ipe":7548,"iwl":7549,"igki":7550,"iufg":7551,"ictf":7552,"iufs":7553,"jar":7554,"jlo":7555,"jcd":7556,"jax":7557,"jzs":7558,"jcy":7559,"jsd":7560,"jwn":7561,"jwh":7562,"jnl":7563,"jqvq":7564,"jqeu":7565,"jufw":7566,"jqjg":7567,"jzrq":7568,"jqlf":7569,"jxdz":7570,"jkyh":7571,"jupf":7572,"jxte":7573,"jifs":7574,"jxza":7575,"jmpn":7576,"jxmn":7577,"kZ":7578,"kfw":7579,"kcw":7580,"kkr":7581,"kxfl":7582,"kzmd":7583,"karg":7584,"kovq":7585,"kuxo":7586,"kzbw":7587,"kvvo":7588,"kmhy":7589,"lor":7590,"lct":7591,"lij":7592,"lmm":7593,"luy":7594,"luh":7595,"lgr":7596,"lvh":7597,"lcfk":7598,"lrex":7599,"lfjs":7600,"lukd":7601,"lzdo":7602,"lxlp":7603,"lxri":7604,"lupv":7605,"lmmx":7606,"lxmo":7607,"mV":7608,"mou":7609,"mxt":7610,"mov":7611,"mkr":7612,"moek":7613,"mqco":7614,"morf":7615,"mipj":7616,"nes":7617,"nme":7618,"nay":7619,"nxs":7620,"nkv":7621,"nasu":7622,"nifc":7623,"nikh":7624,"nitd":7625,"nita":7626,"nkvo":7627,"ngzo":7628,"nlhj":7629,"nchq":7630,"ngtq":7631,"npdc":7632,"oet":7633,"oosf":7634,"oapn":7635,"ozbk":7636,"ozmr":7637,"oqhy":7638,"oikt":7639,"pre":7640,"pou":7641,"pgs":7642,"pne":7643,"pufy":7644,"papn":7645,"pats":7646,"pxrh":7647,"pnno":7648,"pqlh":7649,"pdeo":7650,"panw":7651,"purv":7652,"pasj":7653,"qN":7654,"qur":7655,"quf":7656,"qed":7657,"qrs":7658,"qatd":7659,"qgvr":7660,"qiax":7661,"qstl":7662,"qloq":7663,"qsiz":7664,"qzpy":7665,"qzlk":7666,"ryp":7667,"riw":7668,"rky":7669,"rtt":7670,"rmf":7671,"rpn":7672,"rufw":7673,"rogo":7674,"rffu":7675,"rfmx":7676,"scl":7677,"suf":7678,"sirm":7679,"sax":7680,"sny":7681,"suj":7682,"sqp":7683,"swy":7684,"spt":7685,"smn":7686,"scrz":7687,"sntc":7688,"sqbp":7689,"smwm":7690,"sltc":7691,"sshs":7692,"sqwr":7693,"sqhb":7694,"saai":7695,"slok":7696,"sopf":7697,"skvp":7698,"tak":7699,"tage":7700,"tzb":7701,"tqn":7702,"tmw":7703,"tija":7704,"tsew":7705,"tqsn":7706,"tvht":7707,"tqlj":7708,"ttsk":7709,"tfef":7710,"tocw":7711,"tqcr":7712,"txna":7713,"tlvl":7714,"tcxo":7715,"tsei":7716,"tgkx":7717,"ues":7718,"uot":7719,"uvg":7720,"uec":7721,"uxj":7722,"uzm":7723,"ugy":7724,"uarq":7725,"uzkr":7726,"uqzq":7727,"uukj":7728,"uqrq":7729,"uivr":7730,"uxwt":7731,"uvgu":7732,"unte":7733,"vnd":7734,"vxp":7735,"vuj":7736,"vzs":7737,"vmj":7738,"vnh":7739,"vvd":7740,"vtt":7741,"vuek":7742,"vogv":7743,"vndm":7744,"vrvn":7745,"viym":7746,"viap":7747,"vknv":7748,"vpeg":7749,"vohx":7750,"wse":7751,"wnt":7752,"wou":7753,"wul":7754,"way":7755,"wrs":7756,"wip":7757,"wfb":7758,"wkm":7759,"wey":7760,"wkt":7761,"wtl":7762,"wjbd":7763,"wcjp":7764,"wksx":7765,"wzfy":7766,"wqfy":7767,"wazx":7768,"wkrw":7769,"xing":7770,"xare":7771,"xqb":7772,"xqy":7773,"xgyh":7774,"xzyc":7775,"xidf":7776,"xoyb":7777,"xgkt":7778,"xoee":7779,"xadr":7780,"xxte":7781,"xiep":7782,"xgkp":7783,"yor":7784,"yuw":7785,"ycs":7786,"ytl":7787,"ywn":7788,"ywe":7789,"ywh":7790,"ymc":7791,"yxeb":7792,"yuek":7793,"yomn":7794,"yitx":7795,"yqjh":7796,"yftq":7797,"ynnq":7798,"ycmx":7799,"yzbr":7800,"yvyd":7801,"zzy":7802,"zob":7803,"zah":7804,"zcs":7805,"zatd":7806,"zodx":7807,"znto":7808,"zocz":7809,"ztru":7810,"zavt":7811,"zgpp":7812,"zume":7813,"reth":7814,"reks":7815,"reig":7816,"rexa":7817,"rehv":7818,"repm":7819,"stqp":7820,"cltv":7821,"clqa":7822,"iow":7823,"ioak":7824,"iopl":7825,"iosk":7826,"urkh":7827,"urcy":7828,"heo":7829,"het":7830,"hecv":7831,"arj":7832,"arx":7833,"arav":7834,"arzn":7835,"arnj":7836,"orrl":7837,"orvi":7838,"ala":7839,"alrj":7840,"alag":7841,"alhm":7842,"ones":7843,"oned":7844,"onfh":7845,"lebb":7846,"sebp":7847,"isjp":7848,"esis":7849,"esll":7850,"esiy":7851,"lohs":7852,"ntj":7853,"otac":7854,"ouzv":7855,"rrj":7856,"rrnf":7857,"rrfx":7858,"rrni":7859,"umm":7860,"umes":7861,"umcj":7862,"mpdw":7863,"mpep":7864,"zen":7865,"zeet":7866,"unl":7867,"uncs":7868,"unrd":7869,"ndr":7870,"ndlr":7871,"itgd":7872,"itlr":7873,"itdk":7874,"ckok":7875,"cknl":7876,"ckpx":7877,"mezr":7878,"mevp":7879,"geul":7880,"geik":7881,"gegt":7882,"anzh":7883,"aniq":7884,"anfe":7885,"anyv":7886,"anmu":7887,"atdh":7888,"ofts":7889,"ofwq":7890,"ofli":7891,"lym":7892,"lytw":7893,"lyrl":7894,"ufpt":7895,"ctll":7896,"ctvp":7897,"ctsx":7898,"irq":7899,"irkj":7900,"irby":7901,"irag":7902,"irwv":7903,"iryl":7904,"opid":7905,"opye":7906,"opyb":7907,"raa":7908,"raqa":7909,"ddlm":7910,"ddco":7911,"ulcf":7912,"chzd":7913,"chjf":7914,"ibk":7915,"ibid":7916,"ibab":7917,"iblq":7918,"racq":7919,"tszj":7920,"tskd":7921,"ivcy":7922,"ivvy":7923,"ivcm":7924,"ivmo":7925,"emo":7926,"pei":7927,"pev":7928,"pejh":7929,"peht":7930,"pehq":7931,"owqj":7932,"owob":7933,"owya":7934,"owpi":7935,"libb":7936,"ads":7937,"adwj":7938,"adyv":7939,"adgo":7940,"adkc":7941,"adjz":7942,"idlt":7943,"idoz":7944,"icdd":7945,"icdy":7946,"enqp":7947,"ayyv":7948,"ayyk":7949,"sil":7950,"utgn":7951,"utvn":7952,"utwt":7953,"ftk":7954,"ftw":7955,"ftxd":7956,"ftxx":7957,"ftbn":7958,"ftcg":7959,"apj":7960,"apuk":7961,"apuv":7962,"apxl":7963,"olln":7964,"lses":7965,"cdm":7966,"cdrd":7967,"cdgq":7968,"cdha":7969,"ocp":7970,"edvw":7971,"edqh":7972,"xtn":7973,"xtgb":7974,"xtzp":7975,"gnap":7976,"gnij":7977,"gnvf":7978,"akof":7979,"akjy":7980,"odza":7981,"odtn":7982,"odii":7983,"sona":7984,"twmt":7985,"twjw":7986,"faac":7987,"ovli":7988,"ovjo":7989,"axw":7990,"okd":7991,"okt":7992,"okjd":7993,"okkq":7994,"okdf":7995,"nsat":7996,"nsoo":7997,"nscu":7998,"nsao":7999}